<unk>	0
<s>	0
</s>	0
<0x00>	0
<0x01>	0
<0x02>	0
<0x03>	0
<0x04>	0
<0x05>	0
<0x06>	0
<0x07>	0
<0x08>	0
<0x09>	0
<0x0A>	0
<0x0B>	0
<0x0C>	0
<0x0D>	0
<0x0E>	0
<0x0F>	0
<0x10>	0
<0x11>	0
<0x12>	0
<0x13>	0
<0x14>	0
<0x15>	0
<0x16>	0
<0x17>	0
<0x18>	0
<0x19>	0
<0x1A>	0
<0x1B>	0
<0x1C>	0
<0x1D>	0
<0x1E>	0
<0x1F>	0
<0x20>	0
<0x21>	0
<0x22>	0
<0x23>	0
<0x24>	0
<0x25>	0
<0x26>	0
<0x27>	0
<0x28>	0
<0x29>	0
<0x2A>	0
<0x2B>	0
<0x2C>	0
<0x2D>	0
<0x2E>	0
<0x2F>	0
<0x30>	0
<0x31>	0
<0x32>	0
<0x33>	0
<0x34>	0
<0x35>	0
<0x36>	0
<0x37>	0
<0x38>	0
<0x39>	0
<0x3A>	0
<0x3B>	0
<0x3C>	0
<0x3D>	0
<0x3E>	0
<0x3F>	0
<0x40>	0
<0x41>	0
<0x42>	0
<0x43>	0
<0x44>	0
<0x45>	0
<0x46>	0
<0x47>	0
<0x48>	0
<0x49>	0
<0x4A>	0
<0x4B>	0
<0x4C>	0
<0x4D>	0
<0x4E>	0
<0x4F>	0
<0x50>	0
<0x51>	0
<0x52>	0
<0x53>	0
<0x54>	0
<0x55>	0
<0x56>	0
<0x57>	0
<0x58>	0
<0x59>	0
<0x5A>	0
<0x5B>	0
<0x5C>	0
<0x5D>	0
<0x5E>	0
<0x5F>	0
<0x60>	0
<0x61>	0
<0x62>	0
<0x63>	0
<0x64>	0
<0x65>	0
<0x66>	0
<0x67>	0
<0x68>	0
<0x69>	0
<0x6A>	0
<0x6B>	0
<0x6C>	0
<0x6D>	0
<0x6E>	0
<0x6F>	0
<0x70>	0
<0x71>	0
<0x72>	0
<0x73>	0
<0x74>	0
<0x75>	0
<0x76>	0
<0x77>	0
<0x78>	0
<0x79>	0
<0x7A>	0
<0x7B>	0
<0x7C>	0
<0x7D>	0
<0x7E>	0
<0x7F>	0
<0x80>	0
<0x81>	0
<0x82>	0
<0x83>	0
<0x84>	0
<0x85>	0
<0x86>	0
<0x87>	0
<0x88>	0
<0x89>	0
<0x8A>	0
<0x8B>	0
<0x8C>	0
<0x8D>	0
<0x8E>	0
<0x8F>	0
<0x90>	0
<0x91>	0
<0x92>	0
<0x93>	0
<0x94>	0
<0x95>	0
<0x96>	0
<0x97>	0
<0x98>	0
<0x99>	0
<0x9A>	0
<0x9B>	0
<0x9C>	0
<0x9D>	0
<0x9E>	0
<0x9F>	0
<0xA0>	0
<0xA1>	0
<0xA2>	0
<0xA3>	0
<0xA4>	0
<0xA5>	0
<0xA6>	0
<0xA7>	0
<0xA8>	0
<0xA9>	0
<0xAA>	0
<0xAB>	0
<0xAC>	0
<0xAD>	0
<0xAE>	0
<0xAF>	0
<0xB0>	0
<0xB1>	0
<0xB2>	0
<0xB3>	0
<0xB4>	0
<0xB5>	0
<0xB6>	0
<0xB7>	0
<0xB8>	0
<0xB9>	0
<0xBA>	0
<0xBB>	0
<0xBC>	0
<0xBD>	0
<0xBE>	0
<0xBF>	0
<0xC0>	0
<0xC1>	0
<0xC2>	0
<0xC3>	0
<0xC4>	0
<0xC5>	0
<0xC6>	0
<0xC7>	0
<0xC8>	0
<0xC9>	0
<0xCA>	0
<0xCB>	0
<0xCC>	0
<0xCD>	0
<0xCE>	0
<0xCF>	0
<0xD0>	0
<0xD1>	0
<0xD2>	0
<0xD3>	0
<0xD4>	0
<0xD5>	0
<0xD6>	0
<0xD7>	0
<0xD8>	0
<0xD9>	0
<0xDA>	0
<0xDB>	0
<0xDC>	0
<0xDD>	0
<0xDE>	0
<0xDF>	0
<0xE0>	0
<0xE1>	0
<0xE2>	0
<0xE3>	0
<0xE4>	0
<0xE5>	0
<0xE6>	0
<0xE7>	0
<0xE8>	0
<0xE9>	0
<0xEA>	0
<0xEB>	0
<0xEC>	0
<0xED>	0
<0xEE>	0
<0xEF>	0
<0xF0>	0
<0xF1>	0
<0xF2>	0
<0xF3>	0
<0xF4>	0
<0xF5>	0
<0xF6>	0
<0xF7>	0
<0xF8>	0
<0xF9>	0
<0xFA>	0
<0xFB>	0
<0xFC>	0
<0xFD>	0
<0xFE>	0
<0xFF>	0
en	-0
ar	-1
▁e	-2
an	-3
ko	-4
ta	-5
er	-6
▁b	-7
▁d	-8
at	-9
in	-10
ak	-11
▁z	-12
it	-13
al	-14
ur	-15
or	-16
te	-17
▁h	-18
tz	-19
iz	-20
▁eta	-21
ik	-22
ir	-23
▁g	-24
ia	-25
il	-26
re	-27
▁a	-28
on	-29
ek	-30
un	-31
de	-32
arr	-33
la	-34
▁da	-35
aren	-36
tu	-37
go	-38
▁p	-39
io	-40
az	-41
▁E	-42
atu	-43
et	-44
itu	-45
▁A	-46
▁du	-47
us	-48
▁m	-49
▁s	-50
▁l	-51
ra	-52
▁B	-53
▁bat	-54
is	-55
es	-56
eko	-57
ain	-58
▁zu	-59
era	-60
ten	-61
itz	-62
as	-63
iko	-64
ez	-65
▁eg	-66
atz	-67
err	-68
eh	-69
▁iz	-70
▁k	-71
▁j	-72
du	-73
os	-74
▁ar	-75
ab	-76
▁n	-77
ro	-78
▁es	-79
▁ez	-80
ako	-81
▁H	-82
▁zen	-83
ean	-84
eta	-85
tx	-86
▁(	-87
ari	-88
el	-89
▁M	-90
▁ko	-91
ts	-92
▁G	-93
iren	-94
ai	-95
ol	-96
▁er	-97
di	-98
▁izan	-99
ea	-100
▁zuen	-101
ib	-102
uz	-103
▁I	-104
▁S	-105
▁ber	-106
ud	-107
▁f	-108
▁P	-109
▁L	-110
tan	-111
ira	-112
▁ziren	-113
ela	-114
ide	-115
iak	-116
etan	-117
eg	-118
am	-119
ail	-120
ag	-121
ian	-122
▁al	-123
▁in	-124
tzen	-125
id	-126
▁ere	-127
le	-128
▁hor	-129
▁ditu	-130
▁era	-131
ok	-132
▁egin	-133
res	-134
ita	-135
ena	-136
do	-137
tik	-138
au	-139
▁K	-140
ad	-141
ekin	-142
▁ze	-143
▁"	-144
▁T	-145
▁ur	-146
men	-147
▁D	-148
ig	-149
ul	-150
▁aur	-151
uru	-152
▁zitu	-153
▁C	-154
▁kon	-155
▁J	-156
ien	-157
▁em	-158
▁esk	-159
▁N	-160
este	-161
antz	-162
▁on	-163
▁F	-164
▁os	-165
om	-166
uk	-167
▁«	-168
▁O	-169
▁o	-170
atzen	-171
▁biz	-172
tal	-173
▁dira	-174
arte	-175
▁beh	-176
uden	-177
▁or	-178
ter	-179
▁az	-180
ala	-181
▁lan	-182
alde	-183
▁dago	-184
▁bain	-185
▁ir	-186
tr	-187
tako	-188
▁har	-189
ah	-190
usk	-191
iako	-192
▁zuten	-193
and	-194
▁la	-195
sun	-196
▁egit	-197
oa	-198
▁ik	-199
azio	-200
ap	-201
▁den	-202
em	-203
▁dute	-204
ip	-205
▁etx	-206
▁arte	-207
erri	-208
tza	-209
▁as	-210
▁en	-211
arre	-212
tatu	-213
ara	-214
ion	-215
im	-216
▁urte	-217
oko	-218
▁zeuden	-219
um	-220
▁pro	-221
tor	-222
▁Es	-223
tasun	-224
▁U	-225
etako	-226
▁Z	-227
arra	-228
▁beste	-229
itza	-230
erts	-231
eak	-232
ren	-233
zten	-234
ob	-235
tzeko	-236
▁bere	-237
▁R	-238
▁hau	-239
▁de	-240
▁leh	-241
arren	-242
og	-243
▁ger	-244
iru	-245
▁t	-246
▁edo	-247
aur	-248
ub	-249
op	-250
end	-251
bil	-252
ua	-253
arekin	-254
▁Ar	-255
▁zituen	-256
ka	-257
oan	-258
▁behar	-259
ura	-260
▁ald	-261
ut	-262
▁bi	-263
▁hon	-264
din	-265
gun	-266
dor	-267
oz	-268
▁ud	-269
ug	-270
ki	-271
ic	-272
▁erre	-273
talde	-274
▁tx	-275
pres	-276
ortu	-277
▁baina	-278
▁km	-279
ma	-280
▁nah	-281
ertson	-282
ei	-283
arri	-284
oak	-285
▁hori	-286
▁Er	-287
▁udal	-288
ed	-289
eb	-290
▁geh	-291
uskal	-292
iaren	-293
urr	-294
▁ab	-295
▁ag	-296
gu	-297
entz	-298
▁an	-299
ti	-300
atzeko	-301
ete	-302
▁enpres	-303
atik	-304
amil	-305
zio	-306
iago	-307
▁zituzten	-308
▁pertson	-309
▁bak	-310
▁horre	-311
▁V	-312
▁batz	-313
▁lehen	-314
▁el	-315
agus	-316
▁egun	-317
▁ba	-318
▁berr	-319
kun	-320
▁ondor	-321
etatik	-322
▁talde	-323
▁has	-324
▁biztan	-325
ch	-326
ern	-327
ina	-328
katu	-329
erako	-330
▁bil	-331
▁Al	-332
..	-333
▁giz	-334
▁gain	-335
aten	-336
ial	-337
▁duen	-338
▁zer	-339
ikoa	-340
▁guz	-341
atur	-342
▁egiten	-343
ken	-344
▁nagus	-345
▁dela	-346
azi	-347
▁aurk	-348
man	-349
itate	-350
tib	-351
itzen	-352
uen	-353
keta	-354
bat	-355
▁erabil	-356
pain	-357
▁An	-358
azte	-359
kin	-360
▁artean	-361
▁famil	-362
koa	-363
ald	-364
▁eman	-365
lan	-366
orm	-367
ola	-368
kon	-369
ioa	-370
▁atz	-371
ba	-372
aria	-373
ier	-374
▁ing	-375
▁hartu	-376
▁aurre	-377
errian	-378
▁biztanle	-379
▁ikus	-380
▁at	-381
▁gar	-382
▁ah	-383
▁baino	-384
▁arr	-385
▁mo	-386
ibil	-387
its	-388
▁izango	-389
▁arg	-390
bide	-391
▁bai	-392
▁hil	-393
abe	-394
▁par	-395
▁arab	-396
akum	-397
▁dio	-398
ende	-399
▁erak	-400
▁bal	-401
ler	-402
arik	-403
etik	-404
▁In	-405
tzea	-406
),	-407
▁esan	-408
▁pol	-409
uan	-410
▁ego	-411
▁Hor	-412
aile	-413
▁Ber	-414
to	-415
aso	-416
tar	-417
▁hand	-418
bak	-419
▁sail	-420
ri	-421
▁duten	-422
uak	-423
zte	-424
▁zuz	-425
aktib	-426
▁pres	-427
▁kan	-428
aldi	-429
▁barr	-430
▁bez	-431
ika	-432
▁esp	-433
▁alde	-434
».	-435
da	-436
pen	-437
▁jok	-438
▁nahi	-439
tur	-440
etro	-441
ber	-442
▁herr	-443
▁ikas	-444
▁bide	-445
arrak	-446
▁asko	-447
▁te	-448
ista	-449
).	-450
▁diren	-451
▁lagun	-452
▁emakum	-453
▁esku	-454
ost	-455
▁Fr	-456
artu	-457
▁hain	-458
mendu	-459
▁Biz	-460
uko	-461
▁adi	-462
▁id	-463
ada	-464
▁ondoren	-465
▁jar	-466
▁gen	-467
gin	-468
▁Euskal	-469
bor	-470
par	-471
tzi	-472
▁etxek	-473
ude	-474
tze	-475
atutako	-476
▁inguru	-477
endu	-478
▁guzt	-479
▁ek	-480
atuko	-481
aldu	-482
▁hiru	-483
aldean	-484
raf	-485
eke	-486
▁bur	-487
ebiz	-488
▁herri	-489
▁gor	-490
ida	-491
▁ga	-492
▁eur	-493
uts	-494
iar	-495
▁han	-496
▁dituzte	-497
▁gehiago	-498
tro	-499
▁batean	-500
tua	-501
una	-502
ego	-503
▁hir	-504
aturik	-505
▁zego	-506
lako	-507
ebizitza	-508
uste	-509
atuta	-510
▁W	-511
ark	-512
▁arabera	-513
af	-514
▁ind	-515
▁ager	-516
▁ibil	-517
oaren	-518
▁pertsona	-519
arrik	-520
▁elk	-521
itzeko	-522
ubl	-523
utx	-524
lo	-525
erak	-526
dako	-527
▁bizi	-528
▁Ir	-529
▁ban	-530
▁hasi	-531
▁egiteko	-532
tin	-533
▁oh	-534
▁baten	-535
▁oso	-536
mer	-537
▁min	-538
▁u	-539
▁ira	-540
istor	-541
isk	-542
igarren	-543
urua	-544
▁gizon	-545
ariak	-546
▁izat	-547
▁hel	-548
orr	-549
▁des	-550
▁azken	-551
▁polit	-552
tasuna	-553
ure	-554
alab	-555
▁sal	-556
etx	-557
konom	-558
undu	-559
tzat	-560
▁dait	-561
iste	-562
▁sem	-563
egi	-564
▁Ez	-565
▁El	-566
erria	-567
▁buruz	-568
isa	-569
tra	-570
▁zegoen	-571
obern	-572
▁kal	-573
▁orde	-574
atzea	-575
▁ari	-576
ne	-577
ero	-578
▁ezag	-579
izk	-580
dun	-581
▁sortu	-582
▁bezala	-583
▁Espain	-584
ot	-585
▁X	-586
een	-587
▁Tx	-588
idea	-589
earen	-590
▁dugu	-591
▁Mar	-592
ex	-593
bitz	-594
▁San	-595
▁hitz	-596
aketa	-597
▁jo	-598
teko	-599
gatik	-600
ism	-601
pos	-602
ikoak	-603
▁Kon	-604
▁Az	-605
▁eraik	-606
itx	-607
▁enpresak	-608
if	-609
▁zeh	-610
ing	-611
aio	-612
kor	-613
▁auk	-614
▁adier	-615
atua	-616
aldeko	-617
▁estatu	-618
▁atzo	-619
ula	-620
▁batzuk	-621
ga	-622
dik	-623
aritza	-624
▁mug	-625
▁Ur	-626
▁go	-627
▁enpresa	-628
▁gutx	-629
gi	-630
▁izen	-631
tuak	-632
▁hainbat	-633
▁dituzten	-634
up	-635
▁ap	-636
▁orain	-637
qu	-638
irela	-639
▁kil	-640
▁mar	-641
▁egon	-642
garr	-643
▁-	-644
▁Frantz	-645
▁mende	-646
▁mil	-647
ein	-648
▁ahal	-649
▁Eur	-650
st	-651
▁daude	-652
kuntza	-653
ac	-654
▁uste	-655
▁dauden	-656
▁lortu	-657
ente	-658
▁err	-659
▁gisa	-660
▁seme	-661
▁parte	-662
arreko	-663
▁sor	-664
▁zerbitz	-665
▁tr	-666
▁etxebizitza	-667
▁handi	-668
▁zela	-669
arako	-670
▁duela	-671
▁un	-672
zko	-673
ie	-674
ional	-675
ilaren	-676
▁denbor	-677
leria	-678
aina	-679
▁sin	-680
...	-681
▁irab	-682
bait	-683
▁Ch	-684
eran	-685
▁c	-686
▁kilom	-687
▁antz	-688
▁urtean	-689
▁ad	-690
▁euskal	-691
▁ham	-692
tol	-693
itzak	-694
▁gaur	-695
iek	-696
▁Biztan	-697
▁bakarrik	-698
form	-699
ats	-700
ezko	-701
itar	-702
▁As	-703
gil	-704
▁aurr	-705
▁batera	-706
▁ezin	-707
ton	-708
aktibo	-709
min	-710
▁zion	-711
ran	-712
▁azp	-713
»,	-714
▁erabak	-715
▁irak	-716
▁kilometro	-717
▁arteko	-718
ist	-719
ital	-720
akin	-721
▁anim	-722
▁gazte	-723
▁udalerrian	-724
▁oin	-725
▁emakume	-726
▁zab	-727
tes	-728
dur	-729
erdi	-730
entzia	-731
▁lib	-732
rain	-733
itarte	-734
▁Europ	-735
gan	-736
ultz	-737
▁konp	-738
▁Estatu	-739
▁gabe	-740
▁azal	-741
▁jaso	-742
ih	-743
ep	-744
▁horien	-745
so	-746
▁garr	-747
▁bih	-748
itan	-749
▁baita	-750
tuen	-751
aka	-752
beste	-753
iki	-754
▁am	-755
▁dagoen	-756
goa	-757
▁gai	-758
▁bigarren	-759
▁jarra	-760
▁mus	-761
▁batek	-762
ke	-763
itako	-764
gail	-765
alia	-766
od	-767
orro	-768
urre	-769
▁berri	-770
▁lau	-771
▁sailk	-772
eroko	-773
▁fin	-774
apel	-775
itik	-776
▁%	-777
▁fil	-778
▁erro	-779
tab	-780
▁modu	-781
▁Or	-782
▁Espainiako	-783
tea	-784
▁nor	-785
▁buru	-786
azioa	-787
rik	-788
konomia	-789
▁leg	-790
▁Etx	-791
intz	-792
per	-793
av	-794
▁bitarte	-795
▁diru	-796
▁gero	-797
laz	-798
he	-799
▁gehien	-800
▁bete	-801
▁publ	-802
ents	-803
▁joan	-804
irik	-805
▁berriz	-806
izko	-807
tuko	-808
ilo	-809
▁kanp	-810
les	-811
afarr	-812
▁sar	-813
▁eragin	-814
aiz	-815
olog	-816
eren	-817
kari	-818
▁erabiltzen	-819
▁batzu	-820
tzak	-821
▁udalerri	-822
▁dez	-823
▁aurkez	-824
▁ep	-825
arrek	-826
▁garrantz	-827
▁eusk	-828
▁honek	-829
uaren	-830
▁bako	-831
tatzen	-832
▁Bil	-833
▁koad	-834
buru	-835
eratu	-836
▁bertan	-837
▁mail	-838
▁ne	-839
▁Horre	-840
▁itz	-841
ana	-842
▁adin	-843
arrera	-844
▁kokatu	-845
▁kr	-846
ioak	-847
▁zerbitzu	-848
▁Ger	-849
unde	-850
▁bo	-851
▁garai	-852
ate	-853
▁nagusia	-854
ioz	-855
▁ig	-856
▁Herr	-857
ard	-858
▁koadro	-859
▁horretan	-860
▁baz	-861
▁egingo	-862
tura	-863
▁kond	-864
las	-865
ustr	-866
▁kontra	-867
▁Iz	-868
▁urr	-869
▁animalia	-870
▁daiteke	-871
idae	-872
parta	-873
▁kom	-874
istr	-875
gra	-876
ill	-877
▁barruko	-878
dua	-879
▁lo	-880
▁gara	-881
ora	-882
araz	-883
▁aut	-884
▁aurrera	-885
▁dis	-886
▁Nafarr	-887
▁nab	-888
▁jardu	-889
▁ematen	-890
oren	-891
▁sen	-892
apen	-893
▁uz	-894
▁hiz	-895
▁Ekonomia	-896
▁direla	-897
rafia	-898
arteko	-899
▁dituen	-900
tak	-901
th	-902
▁Un	-903
▁Batu	-904
▁idaz	-905
ehen	-906
▁zuzen	-907
▁Jos	-908
▁familian	-909
▁handia	-910
▁=	-911
▁generoko	-912
tean	-913
duk	-914
▁luz	-915
▁herriak	-916
▁urteko	-917
ban	-918
azo	-919
▁berez	-920
▁lor	-921
▁eskain	-922
etara	-923
▁nagusi	-924
iberts	-925
▁ordez	-926
▁gab	-927
▁jat	-928
▁mundu	-929
▁egindako	-930
est	-931
▁Hala	-932
▁etor	-933
ker	-934
orde	-935
▁honetan	-936
ld	-937
▁Ba	-938
▁antol	-939
iro	-940
rak	-941
▁Erre	-942
eku	-943
untza	-944
▁ordu	-945
▁aip	-946
▁guzti	-947
▁ibilgail	-948
gia	-949
dal	-950
▁batez	-951
▁agin	-952
▁ok	-953
▁|	-954
ere	-955
▁jakin	-956
ideak	-957
artz	-958
▁Frantziako	-959
lin	-960
▁ezagu	-961
asun	-962
garri	-963
berdin	-964
▁Don	-965
▁aukera	-966
urren	-967
▁horiek	-968
▁erres	-969
ff	-970
▁bid	-971
▁Bere	-972
▁kol	-973
ikoan	-974
▁nola	-975
▁Par	-976
▁Gar	-977
▁zein	-978
tuan	-979
▁bera	-980
▁auz	-981
iram	-982
▁utzi	-983
▁gog	-984
▁gel	-985
▁ak	-986
▁bet	-987
▁Biztanleria	-988
lar	-989
▁dut	-990
ater	-991
ku	-992
▁euren	-993
iskal	-994
tzia	-995
▁guztiak	-996
atuak	-997
▁bost	-998
▁bar	-999
▁sailkatu	-1000
▁nek	-1001
▁jarri	-1002
▁horren	-1003
▁bada	-1004
usten	-1005
▁asm	-1006
arria	-1007
▁ama	-1008
▁ondo	-1009
▁huts	-1010
aint	-1011
▁aurka	-1012
▁pas	-1013
kar	-1014
▁sartu	-1015
aktiboak	-1016
igu	-1017
▁Y	-1018
▁Eta	-1019
ire	-1020
▁gure	-1021
II	-1022
ge	-1023
taz	-1024
ond	-1025
▁bad	-1026
▁nabar	-1027
bol	-1028
▁plaz	-1029
▁zuzend	-1030
ets	-1031
teak	-1032
amendu	-1033
▁of	-1034
ich	-1035
atx	-1036
▁bidez	-1037
▁man	-1038
ale	-1039
kuntz	-1040
▁il	-1041
iramidea	-1042
erk	-1043
ore	-1044
ay	-1045
co	-1046
▁etxetan	-1047
▁idatz	-1048
▁Gobern	-1049
▁itzul	-1050
piramidea	-1051
▁azter	-1052
▁eskub	-1053
▁udalerria	-1054
atzaile	-1055
▁inaktibo	-1056
ateko	-1057
▁part	-1058
▁Le	-1059
▁hob	-1060
pena	-1061
▁On	-1062
▁Baina	-1063
izun	-1064
▁lanean	-1065
▁publiko	-1066
▁zio	-1067
tzaile	-1068
oh	-1069
▁ord	-1070
aien	-1071
ov	-1072
▁gobern	-1073
▁kas	-1074
▁irabazi	-1075
▁hauek	-1076
▁adierazi	-1077
▁beharko	-1078
zu	-1079
▁pos	-1080
untz	-1081
▁familiak	-1082
▁gabeko	-1083
iv	-1084
▁osp	-1085
kn	-1086
▁konpon	-1087
▁gur	-1088
▁histor	-1089
▁biko	-1090
ron	-1091
▁fiskal	-1092
▁ip	-1093
▁behin	-1094
▁zien	-1095
▁horrek	-1096
▁itx	-1097
ekua	-1098
▁inter	-1099
iaz	-1100
idente	-1101
▁oinarr	-1102
ix	-1103
▁Azken	-1104
▁EA	-1105
▁esko	-1106
tir	-1107
▁hala	-1108
aileak	-1109
tazio	-1110
▁eskualdean	-1111
▁bihur	-1112
engo	-1113
▁En	-1114
ibertsitate	-1115
alabak	-1116
▁bab	-1117
▁is	-1118
▁hartzen	-1119
▁izena	-1120
▁Os	-1121
▁seg	-1122
merik	-1123
▁banatuta	-1124
▁bel	-1125
exu	-1126
land	-1127
EB	-1128
▁its	-1129
edi	-1130
▁Mon	-1131
▁Beste	-1132
▁gauz	-1133
▁ondorioz	-1134
atib	-1135
▁garrantzits	-1136
▁aldiz	-1137
der	-1138
izio	-1139
▁form	-1140
▁arren	-1141
ateg	-1142
oako	-1143
enak	-1144
ril	-1145
▁so	-1146
orre	-1147
tel	-1148
▁ug	-1149
gab	-1150
▁erdi	-1151
▁Is	-1152
▁erantz	-1153
▁nekaz	-1154
▁inguruan	-1155
▁Mad	-1156
▁Saint	-1157
oki	-1158
kunde	-1159
▁azaldu	-1160
▁zin	-1161
rat	-1162
▁tra	-1163
ipuz	-1164
etarako	-1165
▁Pol	-1166
aldia	-1167
dar	-1168
▁Europako	-1169
▁errold	-1170
eten	-1171
▁presidente	-1172
▁zat	-1173
ona	-1174
ioi	-1175
urri	-1176
▁onartu	-1177
▁Lehen	-1178
▁La	-1179
▁bakarra	-1180
▁buruzko	-1181
igo	-1182
▁sai	-1183
▁Go	-1184
ev	-1185
▁komun	-1186
tore	-1187
▁lurr	-1188
▁eskatu	-1189
▁ekin	-1190
zes	-1191
▁aurkitu	-1192
▁kar	-1193
▁Ale	-1194
▁berean	-1195
ografia	-1196
ast	-1197
imendu	-1198
ministr	-1199
▁txik	-1200
▁Udal	-1201
▁kul	-1202
▁erem	-1203
ikoaren	-1204
▁propos	-1205
▁badu	-1206
pa	-1207
▁kide	-1208
pe	-1209
▁prop	-1210
▁bildu	-1211
▁zenbait	-1212
alak	-1213
▁Lan	-1214
▁def	-1215
▁jabe	-1216
▁dezak	-1217
rom	-1218
▁liburu	-1219
arrean	-1220
azional	-1221
▁erakunde	-1222
▁x	-1223
ator	-1224
atuz	-1225
ila	-1226
▁jarr	-1227
▁dena	-1228
itsi	-1229
▁erakusten	-1230
▁gizarte	-1231
▁“	-1232
▁ta	-1233
▁zuela	-1234
pu	-1235
▁zor	-1236
▁izatea	-1237
▁aurkako	-1238
▁alderdi	-1239
mentu	-1240
na	-1241
ou	-1242
▁Pro	-1243
▁Ab	-1244
erik	-1245
gen	-1246
ailea	-1247
▁film	-1248
▁it	-1249
▁soz	-1250
▁gogor	-1251
dia	-1252
rab	-1253
rib	-1254
ee	-1255
▁Bar	-1256
▁pun	-1257
TA	-1258
▁plan	-1259
▁inguruko	-1260
▁Leg	-1261
▁iker	-1262
▁ob	-1263
leb	-1264
oka	-1265
oen	-1266
ans	-1267
▁izateko	-1268
antza	-1269
▁zehar	-1270
▁daitez	-1271
▁beg	-1272
▁Era	-1273
emen	-1274
▁egoera	-1275
ago	-1276
▁izaten	-1277
entzat	-1278
pl	-1279
▁prob	-1280
rin	-1281
▁komer	-1282
alean	-1283
▁harr	-1284
▁haur	-1285
▁las	-1286
fer	-1287
▁Hori	-1288
▁Dem	-1289
▁atx	-1290
▁herrialde	-1291
▁izend	-1292
▁adieraz	-1293
uñ	-1294
▁ordea	-1295
▁argitar	-1296
▁euro	-1297
orik	-1298
▁haren	-1299
▁proiek	-1300
▁urt	-1301
▁Eusk	-1302
▁irakas	-1303
isten	-1304
▁Amerik	-1305
▁jokatu	-1306
ec	-1307
▁Jaur	-1308
alako	-1309
inen	-1310
▁di	-1311
▁Nafarroako	-1312
▁siste	-1313
▁Egun	-1314
▁inform	-1315
▁su	-1316
▁egitea	-1317
▁babes	-1318
▁bitartean	-1319
itzea	-1320
ow	-1321
▁jende	-1322
stitu	-1323
etxe	-1324
▁ja	-1325
grama	-1326
▁konts	-1327
tuaren	-1328
▁men	-1329
▁txapel	-1330
▁komertz	-1331
rez	-1332
▁Man	-1333
ers	-1334
teg	-1335
▁sarr	-1336
bur	-1337
oc	-1338
▁zur	-1339
▁gal	-1340
▁dauk	-1341
▁zi	-1342
▁Bilb	-1343
▁Batz	-1344
▁sexu	-1345
▁Am	-1346
▁martx	-1347
ategi	-1348
▁ondorengo	-1349
iatu	-1350
▁Ne	-1351
▁erabaki	-1352
▁errep	-1353
atea	-1354
burua	-1355
▁Kan	-1356
▁eko	-1357
▁politiko	-1358
▁langil	-1359
▁Donost	-1360
▁aste	-1361
",	-1362
▁aritu	-1363
ekoa	-1364
garren	-1365
arraren	-1366
▁milioi	-1367
▁mai	-1368
alari	-1369
▁dutela	-1370
▁departa	-1371
▁borro	-1372
iza	-1373
▁gertatu	-1374
▁Herriko	-1375
▁zioten	-1376
▁bes	-1377
▁ib	-1378
ait	-1379
izial	-1380
erb	-1381
atal	-1382
istro	-1383
ketak	-1384
▁Mundu	-1385
▁galdu	-1386
aiak	-1387
▁jarraitu	-1388
ditu	-1389
▁del	-1390
▁nekazaritza	-1391
ax	-1392
▁okup	-1393
ezkuntza	-1394
▁Ik	-1395
etaren	-1396
entzako	-1397
aste	-1398
▁aurretik	-1399
▁prozes	-1400
▁ikusi	-1401
▁Gaur	-1402
azioarteko	-1403
▁Car	-1404
▁lana	-1405
lari	-1406
eder	-1407
usko	-1408
amen	-1409
▁amai	-1410
tasunaren	-1411
▁konderrian	-1412
arazi	-1413
all	-1414
▁diote	-1415
▁harre	-1416
▁ageri	-1417
▁itsas	-1418
▁Lu	-1419
▁departamendu	-1420
▁harreman	-1421
aion	-1422
▁dagoena	-1423
tag	-1424
▁Err	-1425
▁Histor	-1426
▁lit	-1427
▁tekn	-1428
▁barrut	-1429
▁erretir	-1430
itzat	-1431
▁non	-1432
Ar	-1433
oiz	-1434
gor	-1435
▁produk	-1436
▁AEB	-1437
of	-1438
▁aurkeztu	-1439
▁Gipuz	-1440
aus	-1441
▁metro	-1442
log	-1443
▁agertu	-1444
uke	-1445
▁atera	-1446
ras	-1447
▁Gain	-1448
dan	-1449
▁honen	-1450
▁erag	-1451
ij	-1452
unak	-1453
▁pents	-1454
dura	-1455
eil	-1456
mo	-1457
▁aurrean	-1458
urra	-1459
▁Madril	-1460
▁aldeko	-1461
▁est	-1462
itasun	-1463
ano	-1464
▁zabal	-1465
ismo	-1466
teskunde	-1467
rek	-1468
▁Herri	-1469
▁Br	-1470
aro	-1471
▁indar	-1472
▁Bi	-1473
uel	-1474
▁biztanleak	-1475
▁egok	-1476
▁kop	-1477
irol	-1478
▁nahiz	-1479
▁oraindik	-1480
aki	-1481
tikul	-1482
eria	-1483
▁v	-1484
une	-1485
abete	-1486
▁hego	-1487
ell	-1488
eri	-1489
tarako	-1490
▁—	-1491
▁Fran	-1492
tuta	-1493
▁osasun	-1494
tela	-1495
▁bizil	-1496
atze	-1497
▁Unibertsitate	-1498
tasunak	-1499
utbol	-1500
▁pertsonak	-1501
▁Ald	-1502
▁erabili	-1503
▁Eg	-1504
▁po	-1505
▁Etxebizitza	-1506
▁emakumeak	-1507
lt	-1508
▁ia	-1509
eles	-1510
aliz	-1511
egia	-1512
ce	-1513
ille	-1514
bi	-1515
aldian	-1516
▁Eusko	-1517
▁azpian	-1518
ork	-1519
▁Aleman	-1520
▁Izan	-1521
▁bas	-1522
▁sol	-1523
diak	-1524
▁entz	-1525
▁sailkatzen	-1526
zioa	-1527
biltz	-1528
▁industr	-1529
kide	-1530
inak	-1531
▁gutxi	-1532
▁duena	-1533
▁dagok	-1534
▁hiri	-1535
aia	-1536
▁Ag	-1537
▁arm	-1538
usti	-1539
pi	-1540
▁bilaka	-1541
▁baldin	-1542
ort	-1543
garria	-1544
▁eraman	-1545
▁zah	-1546
▁gau	-1547
onom	-1548
▁ikasten	-1549
▁Famil	-1550
▁elkar	-1551
▁ekonom	-1552
koak	-1553
")	-1554
ilik	-1555
▁Hau	-1556
▁balio	-1557
▁Re	-1558
▁mend	-1559
▁plaza	-1560
urrengo	-1561
▁klas	-1562
▁jaio	-1563
itatea	-1564
▁ardur	-1565
ekiko	-1566
▁koadroko	-1567
ph	-1568
▁araberako	-1569
▁berts	-1570
bidea	-1571
erio	-1572
▁besteak	-1573
tabai	-1574
▁ostean	-1575
▁esker	-1576
▁taldeak	-1577
▁zig	-1578
azk	-1579
▁gela	-1580
▁eraikuntza	-1581
▁doan	-1582
itzaren	-1583
▁gainera	-1584
▁bultz	-1585
▁Ad	-1586
eto	-1587
▁Juan	-1588
▁igo	-1589
▁adina	-1590
▁ditugu	-1591
ioaren	-1592
ologia	-1593
▁Zer	-1594
▁buk	-1595
gabez	-1596
apon	-1597
▁erreg	-1598
▁amaitu	-1599
▁sortzen	-1600
▁Arrain	-1601
ales	-1602
ux	-1603
son	-1604
▁Jose	-1605
▁graf	-1606
urbil	-1607
▁Demografia	-1608
gt	-1609
▁baitz	-1610
▁Em	-1611
▁familiaren	-1612
tzain	-1613
elako	-1614
▁hilabete	-1615
▁lehend	-1616
▁guraso	-1617
▁sus	-1618
iagoa	-1619
azteko	-1620
unts	-1621
▁bilakaera	-1622
▁propioa	-1623
▁eki	-1624
ori	-1625
▁zail	-1626
▁iritsi	-1627
garriak	-1628
▁irud	-1629
▁Gu	-1630
▁beti	-1631
▁hasier	-1632
tatzeko	-1633
apena	-1634
▁Jaurlar	-1635
▁uh	-1636
▁Sh	-1637
▁Arrainen	-1638
▁boz	-1639
▁zitz	-1640
▁urtarr	-1641
ieraz	-1642
▁interes	-1643
aera	-1644
istak	-1645
▁beren	-1646
▁ohi	-1647
▁Dia	-1648
▁departamenduan	-1649
ón	-1650
▁berria	-1651
▁helburu	-1652
▁espez	-1653
▁ten	-1654
▁langabez	-1655
oi	-1656
▁Bel	-1657
▁hamark	-1658
anda	-1659
bidez	-1660
▁bihurtu	-1661
tok	-1662
utsi	-1663
iburu	-1664
etak	-1665
▁ministro	-1666
sa	-1667
▁leku	-1668
▁ezberdin	-1669
▁kokatuta	-1670
ema	-1671
mena	-1672
▁herrit	-1673
▁Iruñ	-1674
▁iritz	-1675
▁jarduerak	-1676
▁omen	-1677
▁jas	-1678
azioak	-1679
▁bir	-1680
tern	-1681
▁biztanleria	-1682
▁bakarreko	-1683
tero	-1684
ino	-1685
▁ibilgailu	-1686
leak	-1687
▁Historia	-1688
izia	-1689
▁)	-1690
▁De	-1691
kan	-1692
king	-1693
▁zirela	-1694
▁ema	-1695
iez	-1696
▁duzu	-1697
uma	-1698
▁hauteskunde	-1699
▁taldea	-1700
▁ugari	-1701
aldea	-1702
▁denboran	-1703
our	-1704
▁administr	-1705
dian	-1706
▁ustez	-1707
▁daitezke	-1708
▁multz	-1709
▁musika	-1710
▁Batuetako	-1711
▁ibilgailuen	-1712
batu	-1713
▁sozial	-1714
▁jardun	-1715
gal	-1716
▁hutsik	-1717
▁heldu	-1718
lea	-1719
▁Ameriketako	-1720
▁Mus	-1721
▁kokatua	-1722
▁art	-1723
iruan	-1724
▁honako	-1725
▁aktibo	-1726
▁("	-1727
alaren	-1728
▁osoa	-1729
▁–	-1730
▁bakoitzeko	-1731
izen	-1732
▁formula	-1733
den	-1734
inako	-1735
▁[	-1736
uratu	-1737
▁futbol	-1738
▁Elk	-1739
▁beraz	-1740
mentuak	-1741
▁berriro	-1742
▁eraso	-1743
▁bikoteak	-1744
▁berak	-1745
▁arrisk	-1746
ck	-1747
▁joko	-1748
▁Pertson	-1749
▁berdin	-1750
▁aber	-1751
iten	-1752
tek	-1753
▁&	-1754
▁Orain	-1755
▁lehenengo	-1756
terik	-1757
▁Diru	-1758
▁irek	-1759
ust	-1760
▁barruan	-1761
▁fab	-1762
▁izeneko	-1763
▁hizkuntza	-1764
▁pre	-1765
kul	-1766
▁PS	-1767
iri	-1768
▁Ital	-1769
▁aktiboak	-1770
▁pertsonek	-1771
elek	-1772
▁Gainera	-1773
tzaren	-1774
▁aloka	-1775
▁partida	-1776
▁unitate	-1777
▁ikusten	-1778
otan	-1779
▁kok	-1780
▁atxilo	-1781
alabarik	-1782
tutako	-1783
identzia	-1784
▁musik	-1785
▁dak	-1786
▁eztabai	-1787
▁Hon	-1788
▁Ib	-1789
▁gizonak	-1790
oria	-1791
▁elek	-1792
eraz	-1793
tren	-1794
tif	-1795
que	-1796
▁araz	-1797
▁Gipuzko	-1798
▁uk	-1799
▁batzuetan	-1800
urik	-1801
▁berriak	-1802
▁bizilekua	-1803
▁zabaldu	-1804
▁w	-1805
▁naiz	-1806
▁estatuan	-1807
▁gertuen	-1808
tari	-1809
artzel	-1810
▁zehaz	-1811
▁hed	-1812
▁sek	-1813
ots	-1814
▁eskola	-1815
eman	-1816
▁Per	-1817
leriak	-1818
▁zaio	-1819
goak	-1820
▁heg	-1821
und	-1822
▁kultur	-1823
artzen	-1824
▁Familiak	-1825
▁Esko	-1826
▁tes	-1827
adan	-1828
▁salatu	-1829
▁Gazte	-1830
osten	-1831
abal	-1832
▁adinaren	-1833
▁bik	-1834
▁erraz	-1835
amp	-1836
▁jabearen	-1837
▁Txapel	-1838
▁Bes	-1839
▁Kar	-1840
iari	-1841
▁zain	-1842
▁grafikoan	-1843
agatik	-1844
ande	-1845
▁mer	-1846
▁ide	-1847
▁•	-1848
abide	-1849
tses	-1850
▁nagusietatik	-1851
▁batekin	-1852
▁parking	-1853
▁erroldatutako	-1854
▁osatzen	-1855
▁azaleran	-1856
▁batetik	-1857
▁Diagrama	-1858
▁Gertuen	-1859
▁kanpo	-1860
▁Biztanleriak	-1861
▁bakarrekoak	-1862
▁alokairuan	-1863
▁langabezian	-1864
▁koadrotan	-1865
▁inaktiboak	-1866
artean	-1867
andako	-1868
▁dator	-1869
▁sailkaturik	-1870
bestelako	-1871
se	-1872
▁inaktiboetatik	-1873
azioaren	-1874
bo	-1875
tatik	-1876
▁erretiraturik	-1877
▁okupaturik	-1878
iarrak	-1879
beh	-1880
▁argi	-1881
▁desberdin	-1882
▁aldaketa	-1883
arrez	-1884
▁ofizial	-1885
▁margo	-1886
AR	-1887
atura	-1888
ys	-1889
▁idatzi	-1890
▁ul	-1891
▁fal	-1892
erriko	-1893
▁y	-1894
ikako	-1895
▁gainean	-1896
▁bis	-1897
▁Hego	-1898
▁dok	-1899
▁ekoiz	-1900
ile	-1901
▁aktiboetatik	-1902
▁ed	-1903
ent	-1904
orn	-1905
▁moduan	-1906
▁erresidentzia	-1907
▁euskaraz	-1908
▁Ge	-1909
▁Auz	-1910
egu	-1911
▁Beh	-1912
diko	-1913
▁agertzen	-1914
▁Val	-1915
▁tres	-1916
▁ekital	-1917
egin	-1918
des	-1919
for	-1920
▁ait	-1921
ismoa	-1922
umen	-1923
▁Sal	-1924
▁lanak	-1925
▁uzta	-1926
let	-1927
itua	-1928
▁komunik	-1929
▁probintz	-1930
▁Errep	-1931
ikoen	-1932
ioetatik	-1933
ine	-1934
▁eh	-1935
ebiltz	-1936
▁etxeak	-1937
▁laga	-1938
▁zai	-1939
▁um	-1940
itzako	-1941
▁Gaste	-1942
▁Hezkuntza	-1943
▁iru	-1944
▁Pertsona	-1945
▁Bas	-1946
▁kontro	-1947
▁/	-1948
▁maiatz	-1949
ustiategi	-1950
▁jarduera	-1951
los	-1952
tegi	-1953
banako	-1954
▁Hain	-1955
penak	-1956
ido	-1957
▁bestelako	-1958
▁Giz	-1959
▁medi	-1960
▁Herrian	-1961
▁arrazo	-1962
gel	-1963
ule	-1964
alif	-1965
▁aurten	-1966
▁Lig	-1967
agun	-1968
akas	-1969
▁ekain	-1970
▁sarrerak	-1971
sur	-1972
▁elkarte	-1973
tsail	-1974
▁kos	-1975
▁Bigarren	-1976
erre	-1977
ertu	-1978
▁mugimendu	-1979
EN	-1980
▁saio	-1981
arriak	-1982
▁sistema	-1983
▁komertzioetatik	-1984
▁aurreko	-1985
▁norbanako	-1986
▁haien	-1987
enetako	-1988
▁Atz	-1989
rantses	-1990
▁funtz	-1991
▁ordain	-1992
▁Has	-1993
izi	-1994
Eko	-1995
▁kor	-1996
▁ezau	-1997
fon	-1998
▁geratu	-1999
ezkuntz	-2000
▁argitaratu	-2001
▁hemen	-2002
▁Mug	-2003
xo	-2004
▁ater	-2005
arriz	-2006
▁lehendak	-2007
asa	-2008
mat	-2009
▁zuenez	-2010
ede	-2011
▁barrutian	-2012
▁Bal	-2013
ikoko	-2014
▁Konts	-2015
▁abendu	-2016
▁Bizka	-2017
▁Arr	-2018
▁abes	-2019
azioko	-2020
▁txiki	-2021
▁emateko	-2022
ariaren	-2023
▁Min	-2024
istan	-2025
▁lagata	-2026
pend	-2027
errend	-2028
▁For	-2029
ima	-2030
▁do	-2031
▁eskubide	-2032
▁mon	-2033
▁kirol	-2034
▁hurbil	-2035
▁Erres	-2036
ario	-2037
▁'	-2038
▁jan	-2039
▁dagoela	-2040
▁jatetxe	-2041
▁maila	-2042
aian	-2043
onb	-2044
egun	-2045
▁politik	-2046
▁ona	-2047
▁Ondor	-2048
▁Hiru	-2049
rako	-2050
atuen	-2051
▁Paris	-2052
▁jatorr	-2053
▁,	-2054
uten	-2055
▁osaturik	-2056
▁behera	-2057
▁nagusiak	-2058
▁Su	-2059
▁jokalari	-2060
tsi	-2061
aterako	-2062
▁ETA	-2063
aino	-2064
▁irabaz	-2065
▁Ara	-2066
kord	-2067
▁burua	-2068
▁dem	-2069
oago	-2070
por	-2071
▁pr	-2072
akon	-2073
▁hamar	-2074
▁goiz	-2075
▁Esk	-2076
▁zir	-2077
▁Ak	-2078
▁And	-2079
eraren	-2080
▁Mo	-2081
tzean	-2082
lor	-2083
▁entren	-2084
sarrera	-2085
▁New	-2086
ica	-2087
▁denbora	-2088
▁fiskalaren	-2089
▁aldatu	-2090
atza	-2091
▁gogo	-2092
tsu	-2093
▁orduan	-2094
zein	-2095
itzateke	-2096
▁mendean	-2097
ind	-2098
▁Arm	-2099
▁nego	-2100
▁egungo	-2101
▁Bai	-2102
▁mota	-2103
xe	-2104
▁apir	-2105
▁Ira	-2106
▁barne	-2107
tara	-2108
▁ikasle	-2109
lu	-2110
etar	-2111
lik	-2112
ilean	-2113
reko	-2114
tzal	-2115
▁bidal	-2116
▁kasu	-2117
▁dugun	-2118
▁estatubatu	-2119
tzako	-2120
▁puntu	-2121
▁tal	-2122
ey	-2123
▁Af	-2124
▁hai	-2125
▁ele	-2126
▁nuen	-2127
▁esaten	-2128
▁litzateke	-2129
▁eros	-2130
▁bati	-2131
itutako	-2132
".	-2133
txe	-2134
▁Th	-2135
▁erantzun	-2136
▁kontz	-2137
depend	-2138
▁II	-2139
▁mediana	-2140
▁Bestalde	-2141
▁Har	-2142
▁hasieran	-2143
gar	-2144
aga	-2145
▁urtarrilaren	-2146
▁gauza	-2147
▁emango	-2148
▁Ac	-2149
ite	-2150
▁delako	-2151
▁ex	-2152
▁Esp	-2153
▁manten	-2154
▁Q	-2155
▁zuzendu	-2156
sen	-2157
▁iparr	-2158
▁azpim	-2159
▁zal	-2160
▁baitu	-2161
eredua	-2162
ang	-2163
▁zati	-2164
▁ezarri	-2165
▁arazo	-2166
▁tok	-2167
▁bait	-2168
▁gertatzen	-2169
▁soilik	-2170
▁ezagutzen	-2171
okor	-2172
ikus	-2173
▁sei	-2174
▁Bo	-2175
▁gus	-2176
▁nabarmendu	-2177
▁Errepubl	-2178
LA	-2179
▁Gobernuak	-2180
▁laguntza	-2181
▁urteetan	-2182
▁ezkon	-2183
▁fabrik	-2184
▁PP	-2185
Es	-2186
▁azar	-2187
▁dagokion	-2188
▁mater	-2189
▁for	-2190
▁Hir	-2191
▁nabarmen	-2192
tera	-2193
▁genuen	-2194
arrei	-2195
▁bazter	-2196
▁Han	-2197
fes	-2198
▁izendatu	-2199
▁top	-2200
▁itzuli	-2201
arien	-2202
▁hurrengo	-2203
▁muga	-2204
▁sailkatuta	-2205
me	-2206
▁gora	-2207
▁Zuz	-2208
▁erakutsi	-2209
▁sindik	-2210
▁lur	-2211
▁med	-2212
▁Oh	-2213
RA	-2214
ville	-2215
▁jokatuko	-2216
▁otsail	-2217
▁oro	-2218
▁liter	-2219
▁horrela	-2220
▁jai	-2221
azt	-2222
▁langile	-2223
▁aparta	-2224
▁zel	-2225
▁Batzorde	-2226
▁Mari	-2227
bakarreko	-2228
▁batzuek	-2229
▁:	-2230
▁hartzeko	-2231
▁ol	-2232
▁arau	-2233
ama	-2234
etr	-2235
esk	-2236
▁azpimarr	-2237
▁Gor	-2238
▁XV	-2239
▁ordezk	-2240
aldera	-2241
▁abuz	-2242
ismoaren	-2243
▁produktu	-2244
▁ge	-2245
atalun	-2246
▁murr	-2247
▁osoan	-2248
▁ih	-2249
ituen	-2250
▁Aur	-2251
utu	-2252
illa	-2253
▁kap	-2254
▁hartan	-2255
azpi	-2256
▁Nagus	-2257
▁istor	-2258
▁lortzeko	-2259
nes	-2260
▁EAJ	-2261
erran	-2262
▁nire	-2263
iog	-2264
mon	-2265
▁natur	-2266
▁jaur	-2267
▁elektr	-2268
▁zerrend	-2269
lak	-2270
ionala	-2271
ha	-2272
▁solda	-2273
▁kat	-2274
▁gutxiago	-2275
▁laster	-2276
izik	-2277
▁neurr	-2278
▁lehena	-2279
▁agindu	-2280
urreko	-2281
▁askotan	-2282
▁erabat	-2283
▁die	-2284
▁Ipar	-2285
▁eten	-2286
tzera	-2287
▁izandako	-2288
kizun	-2289
▁lurralde	-2290
alen	-2291
ca	-2292
▁hig	-2293
▁aldarrik	-2294
▁Ind	-2295
▁Zen	-2296
ipu	-2297
▁Joh	-2298
▁mol	-2299
ahi	-2300
▁merk	-2301
▁orokor	-2302
▁teleb	-2303
▁barn	-2304
▁hond	-2305
izkio	-2306
rael	-2307
ris	-2308
▁kontrako	-2309
▁euskar	-2310
▁hirugarren	-2311
rog	-2312
▁zenean	-2313
▁The	-2314
ituta	-2315
ipamendu	-2316
▁guztia	-2317
be	-2318
▁hobe	-2319
▁konpontze	-2320
arraio	-2321
zioak	-2322
▁ezaguna	-2323
▁norm	-2324
Al	-2325
▁hek	-2326
▁Erak	-2327
▁Alderdi	-2328
▁saltze	-2329
▁Gipuzkoako	-2330
▁zena	-2331
aldiak	-2332
▁gu	-2333
▁kalte	-2334
alaber	-2335
▁igaro	-2336
▁hartuko	-2337
▁jak	-2338
ito	-2339
▁hektar	-2340
▁Kol	-2341
▁Errus	-2342
▁munduko	-2343
tre	-2344
itzan	-2345
ioko	-2346
▁adibidez	-2347
▁baizik	-2348
tuz	-2349
▁Donostiako	-2350
▁jarrera	-2351
▁aldizk	-2352
▁ziur	-2353
▁alb	-2354
▁besterik	-2355
yn	-2356
▁Maria	-2357
▁gerta	-2358
▁gorpu	-2359
po	-2360
▁zents	-2361
▁antolatu	-2362
▁iraun	-2363
etasun	-2364
▁handiena	-2365
▁diz	-2366
▁fis	-2367
▁taldearen	-2368
▁akord	-2369
tim	-2370
lav	-2371
▁partid	-2372
▁guztien	-2373
ía	-2374
▁gid	-2375
kur	-2376
▁eremu	-2377
▁kontuan	-2378
▁bilak	-2379
arrekin	-2380
▁utz	-2381
▁irakur	-2382
▁edozein	-2383
▁Bilboko	-2384
▁ezer	-2385
▁Nazional	-2386
▁eras	-2387
▁begira	-2388
ientzia	-2389
edia	-2390
▁ho	-2391
▁lep	-2392
▁gas	-2393
▁handiak	-2394
▁ikusp	-2395
▁ins	-2396
▁irakasle	-2397
ifes	-2398
ariek	-2399
▁handiagoa	-2400
▁lek	-2401
▁alder	-2402
▁nahas	-2403
ketan	-2404
▁erl	-2405
enez	-2406
▁desag	-2407
iburua	-2408
▁Auzit	-2409
azet	-2410
▁Joan	-2411
goz	-2412
▁Fil	-2413
IA	-2414
ikoki	-2415
▁EH	-2416
▁final	-2417
▁Martin	-2418
br	-2419
▁ihes	-2420
itur	-2421
▁euskaldun	-2422
▁hektarea	-2423
▁haz	-2424
itek	-2425
pol	-2426
mak	-2427
gai	-2428
▁trans	-2429
ign	-2430
▁.	-2431
ienez	-2432
▁esaterako	-2433
uri	-2434
▁Kop	-2435
▁Luis	-2436
▁auto	-2437
Er	-2438
itain	-2439
▁herio	-2440
bete	-2441
▁orden	-2442
▁Tel	-2443
▁mut	-2444
▁ditzak	-2445
▁bereziki	-2446
▁murriz	-2447
▁beharra	-2448
▁jakinarazi	-2449
▁boter	-2450
ezkuntzako	-2451
turik	-2452
▁Bur	-2453
▁Kontseil	-2454
▁kl	-2455
eo	-2456
▁zutela	-2457
▁Urte	-2458
▁publikoetatik	-2459
▁kontrol	-2460
▁neur	-2461
rekin	-2462
ezkoa	-2463
▁hez	-2464
▁batzuen	-2465
adak	-2466
yl	-2467
erren	-2468
▁fr	-2469
▁egongo	-2470
▁gelditu	-2471
▁mailako	-2472
▁ardurad	-2473
▁bor	-2474
▁azalera	-2475
▁segur	-2476
▁Con	-2477
▁gerra	-2478
▁Joko	-2479
▁Il	-2480
▁garrantzitsua	-2481
tika	-2482
▁ordezkari	-2483
▁uler	-2484
▁Hand	-2485
▁eredu	-2486
▁demok	-2487
▁zibil	-2488
▁Col	-2489
▁Munduko	-2490
▁giza	-2491
▁Sar	-2492
▁za	-2493
▁gataz	-2494
iel	-2495
▁Legebiltz	-2496
▁atxilotu	-2497
aul	-2498
▁bidea	-2499
▁=|	-2500
▁idazle	-2501
▁independ	-2502
▁eraiki	-2503
erriak	-2504
▁apartamentuak	-2505
▁Cas	-2506
ois	-2507
▁Den	-2508
anta	-2509
▁nazioarteko	-2510
▁taldeko	-2511
aiaren	-2512
▁zuena	-2513
▁arrakas	-2514
▁Anton	-2515
goko	-2516
▁informazio	-2517
▁gehienak	-2518
▁Sin	-2519
ardo	-2520
▁eskatzen	-2521
▁administrazio	-2522
▁bertako	-2523
▁jarraitzen	-2524
ja	-2525
fek	-2526
ais	-2527
▁irailaren	-2528
alestin	-2529
▁euskara	-2530
▁mendeb	-2531
▁Alemaniako	-2532
ias	-2533
arekiko	-2534
ert	-2535
diaren	-2536
zen	-2537
▁helburua	-2538
orra	-2539
EA	-2540
izuna	-2541
atzailea	-2542
▁Gal	-2543
▁alk	-2544
aleko	-2545
▁disein	-2546
▁aita	-2547
errak	-2548
▁deb	-2549
▁bezalako	-2550
aztea	-2551
har	-2552
▁Ol	-2553
▁Kul	-2554
▁inoiz	-2555
ios	-2556
ilak	-2557
ata	-2558
▁Nazioarteko	-2559
▁edota	-2560
orako	-2561
▁ekarri	-2562
gabe	-2563
▁Jon	-2564
▁industrial	-2565
▁Mik	-2566
▁profes	-2567
▁dituela	-2568
iok	-2569
▁lagundu	-2570
ituko	-2571
iketa	-2572
▁hura	-2573
iarra	-2574
▁auker	-2575
▁Nor	-2576
tikulu	-2577
▁espero	-2578
alitate	-2579
▁zap	-2580
▁Antz	-2581
▁Ro	-2582
ci	-2583
▁Co	-2584
ens	-2585
osa	-2586
▁bateko	-2587
▁Sail	-2588
▁ekipamendu	-2589
▁and	-2590
rim	-2591
▁Japon	-2592
jek	-2593
erra	-2594
▁Aut	-2595
dem	-2596
ue	-2597
▁zitzaion	-2598
▁ezker	-2599
tiko	-2600
ioen	-2601
▁nahiko	-2602
ioan	-2603
arrena	-2604
▁grab	-2605
no	-2606
diz	-2607
▁familia	-2608
ineko	-2609
▁kris	-2610
pro	-2611
▁eb	-2612
raz	-2613
]]	-2614
▁nazional	-2615
ikl	-2616
▁kude	-2617
▁Arab	-2618
▁maiatzaren	-2619
▁bizitza	-2620
▁Iñ	-2621
▁prest	-2622
▁ekainaren	-2623
▁Ben	-2624
▁XI	-2625
▁espain	-2626
olas	-2627
▁berm	-2628
In	-2629
▁Batasun	-2630
▁Fern	-2631
▁af	-2632
▁garraio	-2633
▁Ban	-2634
amena	-2635
rean	-2636
▁negoz	-2637
▁aipatu	-2638
▁jasotzen	-2639
van	-2640
▁dom	-2641
▁ostal	-2642
gile	-2643
▁Ikas	-2644
aba	-2645
dek	-2646
▁Eki	-2647
con	-2648
▁urriaren	-2649
▁nin	-2650
pean	-2651
▁garaian	-2652
▁martxoaren	-2653
▁Ap	-2654
▁Bizkaiko	-2655
▁eginiko	-2656
▁ark	-2657
▁errefer	-2658
▁zuzendari	-2659
ituz	-2660
▁berres	-2661
▁uharte	-2662
osof	-2663
▁ro	-2664
iam	-2665
gina	-2666
lez	-2667
olako	-2668
▁eskualde	-2669
▁jartzen	-2670
▁John	-2671
▁bereiz	-2672
▁sendo	-2673
agn	-2674
iera	-2675
▁Kom	-2676
urt	-2677
biz	-2678
korra	-2679
azki	-2680
▁eder	-2681
▁geroago	-2682
▁zituela	-2683
ER	-2684
▁ikerketa	-2685
▁Bartzel	-2686
▁Erresuma	-2687
▁gaixo	-2688
▁bota	-2689
▁abenduaren	-2690
▁balia	-2691
▁disko	-2692
adi	-2693
▁antzeko	-2694
▁Italiako	-2695
▁atal	-2696
▁arrakasta	-2697
uren	-2698
An	-2699
▁politikoa	-2700
▁Ok	-2701
▁uztailaren	-2702
iazio	-2703
▁dauka	-2704
ergia	-2705
▁eskaintzen	-2706
aldo	-2707
▁XX	-2708
▁ikasi	-2709
▁fabrikazioko	-2710
▁zenbak	-2711
▁bakar	-2712
▁Mil	-2713
▁estr	-2714
▁amaiera	-2715
irako	-2716
duna	-2717
▁Leh	-2718
▁zaur	-2719
▁gorde	-2720
atzaileak	-2721
▁por	-2722
Ez	-2723
▁Tur	-2724
▁etxe	-2725
▁Ham	-2726
▁Gara	-2727
▁ibilbide	-2728
▁Dan	-2729
▁kanpor	-2730
án	-2731
▁dezake	-2732
tagon	-2733
▁frantses	-2734
▁etorri	-2735
ho	-2736
iografia	-2737
▁osatutako	-2738
rasil	-2739
▁EB	-2740
▁bihar	-2741
▁digu	-2742
▁zure	-2743
▁Rob	-2744
uzt	-2745
▁eleb	-2746
▁azpimarratu	-2747
▁ekipamenduak	-2748
▁kritik	-2749
AN	-2750
▁kendu	-2751
arun	-2752
ash	-2753
▁galde	-2754
▁jotzen	-2755
▁Hainbat	-2756
▁Elkarte	-2757
▁dar	-2758
▁saria	-2759
▁kanpain	-2760
pre	-2761
▁lehiak	-2762
▁dol	-2763
▁At	-2764
▁falta	-2765
▁antzez	-2766
▁horri	-2767
▁ingur	-2768
▁Emakum	-2769
yles	-2770
▁Hel	-2771
▁kultura	-2772
▁piz	-2773
▁errege	-2774
gn	-2775
obi	-2776
▁milit	-2777
atan	-2778
eram	-2779
▁handiko	-2780
▁Aro	-2781
itor	-2782
▁gehi	-2783
▁material	-2784
▁ter	-2785
azko	-2786
itzaile	-2787
▁eragiten	-2788
▁Katalun	-2789
▁ados	-2790
▁ostalaritza	-2791
▁manifes	-2792
▁Sch	-2793
▁eram	-2794
▁preso	-2795
▁iragarri	-2796
▁irudi	-2797
▁asmoa	-2798
▁meta	-2799
▁Bertan	-2800
▁ezagun	-2801
▁deitu	-2802
agarria	-2803
ask	-2804
▁ingeles	-2805
▁mah	-2806
▁Ordu	-2807
▁bitartez	-2808
itas	-2809
▁gol	-2810
▁ehun	-2811
▁Bat	-2812
▁Irak	-2813
▁dagokionez	-2814
ador	-2815
▁jokatzen	-2816
uin	-2817
tala	-2818
aturiko	-2819
rindu	-2820
▁harrap	-2821
▁aktore	-2822
▁defend	-2823
▁pilo	-2824
▁arrats	-2825
▁luze	-2826
▁op	-2827
▁irten	-2828
▁[[	-2829
ister	-2830
▁kazet	-2831
▁herriko	-2832
▁aldetik	-2833
mun	-2834
▁Administr	-2835
▁mak	-2836
len	-2837
▁Lau	-2838
▁hizkuntz	-2839
▁kanpoko	-2840
▁Gerra	-2841
▁dat	-2842
▁zerbait	-2843
▁txosten	-2844
▁apirilaren	-2845
▁luke	-2846
▁politika	-2847
Ek	-2848
▁Israel	-2849
▁lege	-2850
▁erakusk	-2851
▁guztiz	-2852
▁Beraz	-2853
▁progra	-2854
▁aldi	-2855
oph	-2856
▁higiez	-2857
▁Men	-2858
▁dantz	-2859
KO	-2860
▁kez	-2861
▁apain	-2862
▁Erdi	-2863
▁Las	-2864
elarik	-2865
romis	-2866
▁ibili	-2867
▁zaila	-2868
arrizketa	-2869
aza	-2870
▁Be	-2871
▁Bor	-2872
AB	-2873
▁multzoan	-2874
▁denean	-2875
▁geroz	-2876
▁Lo	-2877
▁eduk	-2878
▁etxean	-2879
▁azaroaren	-2880
format	-2881
▁Fin	-2882
▁Kor	-2883
▁ongi	-2884
arentzat	-2885
itasuna	-2886
che	-2887
opter	-2888
▁sortutako	-2889
▁tor	-2890
▁guztiek	-2891
▁buruzag	-2892
tsua	-2893
irrindu	-2894
▁mintz	-2895
▁askok	-2896
lam	-2897
ato	-2898
▁igande	-2899
▁proiektu	-2900
▁eginez	-2901
dea	-2902
▁gra	-2903
▁ekimen	-2904
▁aplik	-2905
letic	-2906
izkion	-2907
itze	-2908
▁higiezinen	-2909
▁Erakunde	-2910
▁aska	-2911
eago	-2912
ograf	-2913
art	-2914
laria	-2915
▁pap	-2916
agarri	-2917
▁labur	-2918
hezkuntzako	-2919
uela	-2920
▁kim	-2921
erantz	-2922
ox	-2923
▁Adi	-2924
▁hasiko	-2925
▁York	-2926
▁eragina	-2927
▁kolor	-2928
▁Austr	-2929
ong	-2930
▁Irland	-2931
are	-2932
zitan	-2933
▁entzun	-2934
duki	-2935
▁gerr	-2936
▁Mex	-2937
rop	-2938
eeee	-2939
▁ezagutu	-2940
qualif	-2941
▁soldadu	-2942
agai	-2943
ros	-2944
ffff	-2945
tzial	-2946
▁legez	-2947
▁Ram	-2948
ener	-2949
qualifier	-2950
▁eskubidea	-2951
▁historia	-2952
▁hartuta	-2953
ozen	-2954
▁horietako	-2955
▁tresn	-2956
▁aitz	-2957
▁unibertsitate	-2958
eras	-2959
iarekin	-2960
etxeak	-2961
reta	-2962
▁goz	-2963
uc	-2964
▁bezain	-2965
▁kopuru	-2966
▁neurri	-2967
▁per	-2968
▁ezik	-2969
▁finantz	-2970
▁Lab	-2971
▁gertu	-2972
ath	-2973
▁erlij	-2974
erenegun	-2975
▁berezia	-2976
▁komertzial	-2977
▁biltzen	-2978
▁titu	-2979
▁guztietan	-2980
inc	-2981
▁Horregatik	-2982
▁Talde	-2983
▁mez	-2984
▁Tr	-2985
▁bakoitzak	-2986
▁garrantzitsu	-2987
▁badira	-2988
za	-2989
▁Dena	-2990
rents	-2991
▁abuztuaren	-2992
anb	-2993
▁otsailaren	-2994
▁irakurri	-2995
egit	-2996
▁mod	-2997
▁sartzen	-2998
▁Seg	-2999
▁izana	-3000
▁atzera	-3001
oge	-3002
onen	-3003
lab	-3004
own	-3005
▁Ath	-3006
▁pat	-3007
▁Ing	-3008
▁sakon	-3009
▁gobernu	-3010
reb	-3011
agu	-3012
ven	-3013
tem	-3014
▁izanik	-3015
ondres	-3016
ant	-3017
▁erra	-3018
dol	-3019
▁zazpi	-3020
▁tren	-3021
▁ohar	-3022
ly	-3023
▁Mende	-3024
▁horretarako	-3025
▁marr	-3026
aldiko	-3027
▁agintari	-3028
dak	-3029
▁der	-3030
ikor	-3031
▁air	-3032
▁Its	-3033
ikuntza	-3034
▁sub	-3035
ies	-3036
▁Mor	-3037
▁konpain	-3038
▁Zub	-3039
▁estal	-3040
▁poz	-3041
▁Horren	-3042
▁eskaini	-3043
III	-3044
iala	-3045
error	-3046
▁Jul	-3047
▁lehenago	-3048
ihar	-3049
▁ote	-3050
▁abi	-3051
▁azk	-3052
iteke	-3053
arunbat	-3054
▁Sc	-3055
▁osatu	-3056
▁estatubatuar	-3057
▁inb	-3058
imo	-3059
▁Olin	-3060
▁ikusk	-3061
▁Franc	-3062
▁sailkatutako	-3063
▁Horrela	-3064
▁Tol	-3065
▁Ga	-3066
▁It	-3067
kak	-3068
▁datorren	-3069
akoa	-3070
uj	-3071
ango	-3072
▁garb	-3073
▁duenez	-3074
▁Ko	-3075
▁kontr	-3076
▁tab	-3077
▁emaitza	-3078
▁Ibarre	-3079
▁baterako	-3080
▁pla	-3081
▁Ped	-3082
▁Cor	-3083
ya	-3084
▁Dav	-3085
▁zez	-3086
▁eduki	-3087
▁Ingal	-3088
▁Pres	-3089
▁eskuratu	-3090
▁Heg	-3091
▁izanen	-3092
▁Oro	-3093
otz	-3094
ass	-3095
▁oz	-3096
▁abia	-3097
▁moz	-3098
▁urtez	-3099
ña	-3100
▁une	-3101
pan	-3102
idan	-3103
gres	-3104
esteko	-3105
▁Olinp	-3106
▁mendeko	-3107
▁eskur	-3108
▁Id	-3109
▁ezaugarri	-3110
ont	-3111
▁Osasun	-3112
uman	-3113
▁bio	-3114
atin	-3115
▁‘	-3116
▁defents	-3117
▁espezie	-3118
istaren	-3119
ste	-3120
▁begir	-3121
▁kontze	-3122
▁hamarkadan	-3123
▁beldur	-3124
▁itur	-3125
TB	-3126
▁adierazten	-3127
▁prozesu	-3128
▁mendi	-3129
keen	-3130
stituzio	-3131
erki	-3132
▁Gure	-3133
ice	-3134
▁Plan	-3135
▁eraikin	-3136
▁Brasil	-3137
▁Arg	-3138
atzera	-3139
adura	-3140
▁garapen	-3141
▁Com	-3142
▁sent	-3143
onomia	-3144
▁industrialen	-3145
▁iragan	-3146
▁hiriburu	-3147
emin	-3148
▁batzorde	-3149
▁desk	-3150
▁argazk	-3151
▁organ	-3152
▁konpontzeko	-3153
NA	-3154
▁AEBetako	-3155
▁eremuan	-3156
erriaren	-3157
▁the	-3158
rezko	-3159
itzean	-3160
▁alegia	-3161
▁ematea	-3162
▁konderria	-3163
tziak	-3164
lamen	-3165
▁etorkizun	-3166
▁jokal	-3167
▁lortzen	-3168
▁ekar	-3169
▁Arte	-3170
▁saiatu	-3171
▁Ed	-3172
goan	-3173
▁arazoak	-3174
▁pin	-3175
▁merkatu	-3176
▁sak	-3177
parr	-3178
▁dek	-3179
Ch	-3180
▁esper	-3181
▁Po	-3182
aude	-3183
▁epa	-3184
izazio	-3185
ria	-3186
▁bereh	-3187
▁gune	-3188
▁minutu	-3189
▁web	-3190
adako	-3191
omen	-3192
▁lerr	-3193
▁pil	-3194
▁elik	-3195
tokia	-3196
▁Xab	-3197
ainko	-3198
El	-3199
▁emandako	-3200
▁Garai	-3201
▁ospets	-3202
ezi	-3203
▁defin	-3204
alo	-3205
adaren	-3206
▁lot	-3207
▁testu	-3208
▁Jav	-3209
esta	-3210
▁lepor	-3211
▁aleman	-3212
▁funts	-3213
▁To	-3214
ES	-3215
urrak	-3216
rist	-3217
arrezko	-3218
izioa	-3219
▁istorio	-3220
▁Bartzelon	-3221
▁zentsuaren	-3222
▁datu	-3223
▁gail	-3224
onek	-3225
▁Auzitegi	-3226
▁bule	-3227
aila	-3228
▁zinema	-3229
▁laguntz	-3230
▁frog	-3231
▁Mikel	-3232
ando	-3233
▁mendearen	-3234
onia	-3235
eus	-3236
▁larr	-3237
▁kopurua	-3238
▁profesional	-3239
▁onena	-3240
▁Nazio	-3241
arena	-3242
eki	-3243
▁sunts	-3244
▁hasiera	-3245
▁igel	-3246
▁br	-3247
▁amaieran	-3248
▁Ha	-3249
▁gizak	-3250
arg	-3251
▁prib	-3252
torea	-3253
▁Mal	-3254
ider	-3255
▁horietan	-3256
sh	-3257
agail	-3258
▁Ondoren	-3259
▁geroztik	-3260
▁din	-3261
▁ondoan	-3262
ardia	-3263
▁berre	-3264
▁halako	-3265
▁III	-3266
ry	-3267
▁Feder	-3268
▁ala	-3269
iara	-3270
▁Londres	-3271
▁protagon	-3272
▁betetzen	-3273
esa	-3274
▁Berr	-3275
eroa	-3276
bu	-3277
▁ondorio	-3278
▁abertzal	-3279
▁borroka	-3280
▁dutenak	-3281
▁Barr	-3282
uss	-3283
▁kale	-3284
ake	-3285
olo	-3286
▁Atzo	-3287
iarrek	-3288
▁direnak	-3289
ve	-3290
▁jasan	-3291
▁egunean	-3292
▁egitura	-3293
▁Nafarroa	-3294
tazioa	-3295
▁bila	-3296
▁nazio	-3297
▁Biografia	-3298
iku	-3299
▁arkitek	-3300
▁hauen	-3301
okoa	-3302
▁goi	-3303
▁modern	-3304
▁Iruñeko	-3305
GC	-3306
uzk	-3307
▁bidean	-3308
▁Ah	-3309
▁Athletic	-3310
▁jada	-3311
▁Intern	-3312
▁Gasteizko	-3313
▁Gon	-3314
▁zortzi	-3315
ane	-3316
ibar	-3317
ws	-3318
ick	-3319
▁et	-3320
urrean	-3321
▁erabilera	-3322
▁aztertu	-3323
hil	-3324
istek	-3325
iarren	-3326
▁Hiz	-3327
ondo	-3328
ikatu	-3329
etsi	-3330
eba	-3331
deko	-3332
▁hartzea	-3333
▁probintzian	-3334
▁estu	-3335
▁hiria	-3336
asko	-3337
aban	-3338
▁tarte	-3339
▁ekintza	-3340
ipo	-3341
cia	-3342
▁elkarrizketa	-3343
▁egitas	-3344
▁publikoko	-3345
▁filma	-3346
▁onar	-3347
txo	-3348
▁autob	-3349
▁kuts	-3350
▁Antonio	-3351
▁Jes	-3352
▁txapelketa	-3353
▁ohiko	-3354
lex	-3355
alek	-3356
istema	-3357
ygi	-3358
uer	-3359
▁lotura	-3360
pide	-3361
▁ireki	-3362
ukle	-3363
iss	-3364
▁txirrindu	-3365
▁Iker	-3366
▁oih	-3367
▁konpos	-3368
usteko	-3369
▁Santa	-3370
▁bisita	-3371
▁benetako	-3372
▁tur	-3373
▁idazkari	-3374
ituak	-3375
▁Lurr	-3376
abil	-3377
▁klasean	-3378
▁Mich	-3379
▁Euskad	-3380
▁NGC	-3381
▁astero	-3382
tatua	-3383
maren	-3384
iteko	-3385
bideak	-3386
▁igelts	-3387
▁gaitz	-3388
▁Urr	-3389
▁beharreko	-3390
ver	-3391
uzki	-3392
▁energia	-3393
▁gainerako	-3394
▁dituztela	-3395
ington	-3396
▁herrian	-3397
▁irrat	-3398
eka	-3399
oma	-3400
▁Sen	-3401
tzearen	-3402
azken	-3403
sek	-3404
atar	-3405
▁pop	-3406
itika	-3407
▁horretako	-3408
▁neg	-3409
▁sortzeko	-3410
▁erroldaren	-3411
▁erabakia	-3412
▁Mer	-3413
org	-3414
▁Can	-3415
arrezkoa	-3416
▁Pas	-3417
▁Poliz	-3418
▁prents	-3419
▁Halaber	-3420
▁mat	-3421
armen	-3422
▁askoz	-3423
top	-3424
▁sartzeko	-3425
▁uzten	-3426
▁hitza	-3427
▁Ma	-3428
itib	-3429
▁lin	-3430
▁urrats	-3431
▁baitzen	-3432
▁azkenean	-3433
▁hauekin	-3434
▁Guzt	-3435
▁funtzion	-3436
stan	-3437
▁garatu	-3438
tt	-3439
duko	-3440
aran	-3441
▁estrateg	-3442
tzan	-3443
▁Jaurlaritzak	-3444
▁zentr	-3445
▁Okzitan	-3446
ogeita	-3447
TZ	-3448
ongo	-3449
atzi	-3450
▁bilakatu	-3451
▁Jean	-3452
urak	-3453
▁Liz	-3454
tzailea	-3455
▁gaurko	-3456
▁lab	-3457
▁Actin	-3458
opterygi	-3459
▁zalantz	-3460
ekoak	-3461
▁Portu	-3462
▁eztabaida	-3463
▁dig	-3464
▁prak	-3465
▁Mugak	-3466
opterygii	-3467
▁obra	-3468
The	-3469
▁kontsum	-3470
▁esparr	-3471
igh	-3472
▁Actinopterygii	-3473
▁ezinbeste	-3474
orri	-3475
▁Pal	-3476
▁konf	-3477
▁biak	-3478
▁selek	-3479
▁dokumen	-3480
▁ezku	-3481
dare	-3482
▁horrelako	-3483
▁le	-3484
Mar	-3485
▁Olinpiar	-3486
▁zehatz	-3487
unean	-3488
▁Haren	-3489
▁pasa	-3490
▁meh	-3491
▁Qu	-3492
▁zil	-3493
ww	-3494
▁bol	-3495
▁eskubideak	-3496
▁Zin	-3497
▁Eskoz	-3498
▁horregatik	-3499
▁kokatzen	-3500
▁iritzi	-3501
▁eztabaid	-3502
▁zehaztu	-3503
▁duelako	-3504
unen	-3505
▁filosof	-3506
zioan	-3507
▁EAEko	-3508
▁send	-3509
▁arl	-3510
▁deitzen	-3511
▁zuenean	-3512
▁pis	-3513
tegia	-3514
izki	-3515
ush	-3516
▁So	-3517
▁eskul	-3518
del	-3519
▁fitx	-3520
▁Errom	-3521
gorpu	-3522
▁nintzen	-3523
▁azaltzen	-3524
▁egunkari	-3525
▁bidai	-3526
▁errepide	-3527
lua	-3528
▁eliz	-3529
▁Will	-3530
▁onen	-3531
▁denez	-3532
tzaileak	-3533
▁zait	-3534
▁Hil	-3535
andik	-3536
▁Zibil	-3537
▁estab	-3538
▁gaude	-3539
▁aukeratu	-3540
▁zaie	-3541
▁Lib	-3542
▁Sor	-3543
prak	-3544
▁kontu	-3545
ordin	-3546
▁boto	-3547
ames	-3548
▁ps	-3549
erg	-3550
lezimendu	-3551
ini	-3552
ord	-3553
▁ha	-3554
▁gaineko	-3555
col	-3556
ation	-3557
▁hildako	-3558
▁Tra	-3559
▁dabil	-3560
▁genero	-3561
La	-3562
▁presidenteak	-3563
ley	-3564
ès	-3565
ipe	-3566
▁informazioa	-3567
▁kateg	-3568
kete	-3569
▁hezkuntza	-3570
ín	-3571
ginak	-3572
▁bider	-3573
▁zegoela	-3574
▁konpromis	-3575
mar	-3576
▁XIX	-3577
▁berehala	-3578
▁Frantzia	-3579
▁estre	-3580
toko	-3581
▁Cl	-3582
abeh	-3583
uper	-3584
▁diete	-3585
▁hirian	-3586
etxea	-3587
▁istr	-3588
▁Inper	-3589
▁Oso	-3590
▁ezta	-3591
▁Europan	-3592
▁frantz	-3593
▁Arabako	-3594
▁establezimendu	-3595
ct	-3596
aketak	-3597
▁egoitza	-3598
▁Publ	-3599
▁protes	-3600
▁Gizarte	-3601
▁izug	-3602
▁Mai	-3603
rea	-3604
orge	-3605
▁janari	-3606
▁Aurre	-3607
▁zinem	-3608
lariak	-3609
▁Bide	-3610
▁ezkondu	-3611
▁Lop	-3612
takoa	-3613
jo	-3614
▁garrantzia	-3615
▁re	-3616
ietan	-3617
▁ofizialki	-3618
▁metroko	-3619
▁mor	-3620
▁honetako	-3621
▁hegaz	-3622
com	-3623
▁euskararen	-3624
▁gaineratu	-3625
▁nik	-3626
▁matx	-3627
arian	-3628
▁ikaste	-3629
gua	-3630
▁osoko	-3631
▁herritarren	-3632
ps	-3633
▁Donostian	-3634
▁Herria	-3635
▁ariko	-3636
▁Aste	-3637
▁san	-3638
▁proposamen	-3639
▁ask	-3640
▁arrun	-3641
aztien	-3642
▁deskrib	-3643
gorputza	-3644
▁PSE	-3645
edo	-3646
▁bidali	-3647
known	-3648
▁horrekin	-3649
▁munduan	-3650
▁argital	-3651
bel	-3652
▁Nah	-3653
aster	-3654
▁Mugakideak	-3655
▁taldean	-3656
▁Bilbon	-3657
uetan	-3658
lob	-3659
▁sailkatua	-3660
▁Argen	-3661
▁esta	-3662
▁Sol	-3663
▁Unibertsitatean	-3664
▁tam	-3665
▁abs	-3666
▁palestin	-3667
▁ideia	-3668
uta	-3669
▁kontzep	-3670
▁Rod	-3671
▁geratzen	-3672
alis	-3673
tus	-3674
izenburua	-3675
▁herenegun	-3676
▁Baion	-3677
▁gainditu	-3678
▁Gre	-3679
▁geld	-3680
prakak	-3681
▁Des	-3682
▁=_	-3683
ss	-3684
▁distan	-3685
unknown	-3686
lek	-3687
peko	-3688
▁kasuan	-3689
atzean	-3690
▁hauetan	-3691
▁Tor	-3692
▁kideak	-3693
▁altx	-3694
▁Alber	-3695
forma	-3696
▁Soz	-3697
▁Iparr	-3698
▁Ego	-3699
▁Haur	-3700
▁ben	-3701
▁familiako	-3702
▁zentro	-3703
▁urter	-3704
▁asmoz	-3705
▁altu	-3706
▁oinarrizko	-3707
ekan	-3708
▁gre	-3709
▁jantz	-3710
▁tresna	-3711
▁dion	-3712
▁telebista	-3713
ung	-3714
▁Ste	-3715
▁Vic	-3716
▁hautatu	-3717
inu	-3718
baldeko	-3719
▁Bet	-3720
obil	-3721
▁fas	-3722
▁ahalegin	-3723
itzera	-3724
▁buel	-3725
anp	-3726
▁gald	-3727
deg	-3728
iarr	-3729
▁denboraldi	-3730
▁tradiz	-3731
▁eguna	-3732
▁herritar	-3733
▁bukatu	-3734
▁Ek	-3735
▁ats	-3736
AT	-3737
▁abiatu	-3738
gur	-3739
pir	-3740
orrak	-3741
▁gorabeh	-3742
▁Madrilgo	-3743
▁larunbat	-3744
▁lap	-3745
igarria	-3746
berg	-3747
mit	-3748
pil	-3749
▁Foru	-3750
▁ginen	-3751
▁Kr	-3752
▁Europa	-3753
▁tir	-3754
▁epaile	-3755
▁segurtasun	-3756
▁Ezau	-3757
tatzea	-3758
va	-3759
karia	-3760
ideen	-3761
▁ahots	-3762
▁portu	-3763
ikan	-3764
ektib	-3765
▁Ama	-3766
▁elkarrekin	-3767
▁buruzkoa	-3768
gon	-3769
erakoan	-3770
▁Javier	-3771
▁daudela	-3772
▁hautag	-3773
▁con	-3774
aioa	-3775
▁Narr	-3776
▁Afrik	-3777
▁konb	-3778
etarik	-3779
▁badago	-3780
▁denda	-3781
▁etxeko	-3782
air	-3783
Euskal	-3784
orian	-3785
▁barnean	-3786
▁prestatu	-3787
▁Pedro	-3788
ezek	-3789
▁Sant	-3790
▁Udalak	-3791
▁Ikus	-3792
▁Bol	-3793
trop	-3794
▁Jac	-3795
▁bali	-3796
▁liburua	-3797
▁Pet	-3798
▁Gab	-3799
▁apur	-3800
▁Ros	-3801
▁ura	-3802
▁pix	-3803
▁martxan	-3804
▁mark	-3805
▁artikul	-3806
ikatzen	-3807
arriko	-3808
▁hamab	-3809
▁kaleratu	-3810
uzko	-3811
enn	-3812
▁Ho	-3813
▁demokrat	-3814
bon	-3815
▁saih	-3816
▁baitzuen	-3817
▁Carlos	-3818
▁egia	-3819
AS	-3820
▁aldean	-3821
▁astean	-3822
▁interpre	-3823
anen	-3824
▁betiko	-3825
astien	-3826
▁zorro	-3827
▁Gonz	-3828
peta	-3829
▁aldera	-3830
▁No	-3831
ezkoen	-3832
▁proiektua	-3833
▁Xabier	-3834
▁inf	-3835
tamendu	-3836
▁baditu	-3837
▁espetx	-3838
▁nukle	-3839
IN	-3840
▁Bak	-3841
▁Itsas	-3842
▁erd	-3843
▁borrok	-3844
▁zenbat	-3845
atuek	-3846
ham	-3847
▁Jo	-3848
▁areago	-3849
▁abok	-3850
toreak	-3851
ataritza	-3852
▁saso	-3853
▁haus	-3854
▁sinatu	-3855
▁domina	-3856
▁komunikazio	-3857
▁kam	-3858
▁arduradun	-3859
▁Iñaki	-3860
▁mailan	-3861
▁garbi	-3862
▁tele	-3863
▁zuzenean	-3864
▁elementu	-3865
▁jarriko	-3866
▁hama	-3867
▁lanetan	-3868
▁sam	-3869
eu	-3870
▁Batasunak	-3871
▁lehendakari	-3872
▁bata	-3873
atuaren	-3874
▁miner	-3875
gunean	-3876
ustu	-3877
▁dantza	-3878
ustizia	-3879
iter	-3880
iguel	-3881
▁ekitaldi	-3882
▁Hurrengo	-3883
tearen	-3884
CO	-3885
▁Horrez	-3886
▁zerrenda	-3887
turiko	-3888
▁NB	-3889
▁hurren	-3890
je	-3891
▁estatuko	-3892
▁ikusteko	-3893
▁Dom	-3894
▁adierazpen	-3895
▁aipatzen	-3896
▁esanetan	-3897
▁datuen	-3898
tis	-3899
▁Gobernu	-3900
iano	-3901
car	-3902
▁Madrilen	-3903
urako	-3904
▁tan	-3905
▁oinarri	-3906
▁objek	-3907
▁onartzen	-3908
iller	-3909
elo	-3910
egiak	-3911
▁se	-3912
▁ekonomiko	-3913
tzale	-3914
▁ohartar	-3915
oni	-3916
▁daram	-3917
▁landu	-3918
▁indark	-3919
court	-3920
gos	-3921
▁baitira	-3922
esia	-3923
▁eliza	-3924
▁gaztelan	-3925
▁etorr	-3926
mend	-3927
▁bero	-3928
▁ibilbidea	-3929
▁aten	-3930
▁itxura	-3931
▁que	-3932
▁bela	-3933
▁sari	-3934
▁teles	-3935
▁Komun	-3936
▁Les	-3937
▁urtetik	-3938
esek	-3939
▁Are	-3940
▁Japoniako	-3941
▁izaera	-3942
sk	-3943
taren	-3944
moa	-3945
▁heriotza	-3946
▁lotuta	-3947
▁hitzak	-3948
▁Mont	-3949
▁Hegaztien	-3950
▁bereko	-3951
aldiaren	-3952
▁dipu	-3953
▁nahikoa	-3954
▁proposatu	-3955
▁eskubideen	-3956
gandik	-3957
▁kidea	-3958
▁taldek	-3959
▁dizkio	-3960
ael	-3961
▁PSO	-3962
▁Mend	-3963
esen	-3964
▁bestetik	-3965
▁gutxienez	-3966
▁atzean	-3967
▁debek	-3968
▁ard	-3969
isko	-3970
▁Pr	-3971
▁asp	-3972
untu	-3973
▁erabiliz	-3974
▁im	-3975
azionala	-3976
▁literatur	-3977
▁gonb	-3978
▁Horrek	-3979
▁dir	-3980
▁Miguel	-3981
ular	-3982
▁ditut	-3983
▁ipar	-3984
kes	-3985
▁luk	-3986
▁LAB	-3987
inaren	-3988
▁Eliz	-3989
▁gobernuak	-3990
▁gut	-3991
▁aurrekon	-3992
▁hasten	-3993
gune	-3994
▁Gero	-3995
▁aitortu	-3996
▁pen	-3997
▁hiriko	-3998
▁txikia	-3999
▁dituena	-4000
azioan	-4001
▁ardura	-4002
▁maiz	-4003
▁Etxeb	-4004
ops	-4005
amendua	-4006
▁orduko	-4007
▁Esku	-4008
▁eskaera	-4009
▁Errepublikako	-4010
▁Aurten	-4011
▁Liburu	-4012
umentu	-4013
En	-4014
doa	-4015
▁dioten	-4016
▁duz	-4017
▁fak	-4018
▁tartean	-4019
mentua	-4020
▁zieten	-4021
pera	-4022
▁jaitsi	-4023
rika	-4024
▁kanton	-4025
▁ateratzen	-4026
▁itxar	-4027
▁zabala	-4028
▁nob	-4029
▁erdian	-4030
▁zera	-4031
▁Jaurlaritzako	-4032
▁Aran	-4033
iè	-4034
▁Hol	-4035
▁beharrezkoa	-4036
▁guru	-4037
▁erren	-4038
yk	-4039
▁babesa	-4040
inek	-4041
tzeak	-4042
▁pl	-4043
▁inolako	-4044
▁elkartu	-4045
▁iaz	-4046
▁be	-4047
▁egil	-4048
▁erraza	-4049
▁mes	-4050
▁gauzak	-4051
▁programa	-4052
ashington	-4053
▁handiago	-4054
▁oper	-4055
▁neurriak	-4056
▁gogorra	-4057
▁zentz	-4058
▁mit	-4059
▁Pe	-4060
azar	-4061
▁prozesua	-4062
▁desager	-4063
▁ordaindu	-4064
▁ikasketak	-4065
▁buruan	-4066
▁Te	-4067
▁indi	-4068
irin	-4069
▁Ep	-4070
▁Ru	-4071
▁forma	-4072
▁Alde	-4073
▁Char	-4074
eska	-4075
ess	-4076
toki	-4077
RI	-4078
erari	-4079
itzari	-4080
▁hobeto	-4081
▁lekua	-4082
▁Narrastien	-4083
▁pertsonaia	-4084
giz	-4085
▁gatazka	-4086
egan	-4087
▁Bern	-4088
▁Kataluniako	-4089
▁irte	-4090
▁mait	-4091
omat	-4092
lok	-4093
▁arlo	-4094
▁Denbor	-4095
▁sailkapen	-4096
ty	-4097
▁noiz	-4098
esko	-4099
▁bilera	-4100
iola	-4101
▁Txapelketa	-4102
▁mal	-4103
▁kargu	-4104
▁horn	-4105
▁uko	-4106
▁Mos	-4107
▁liteke	-4108
tegr	-4109
ger	-4110
irudi	-4111
mende	-4112
▁haiek	-4113
▁David	-4114
▁naf	-4115
▁jarrai	-4116
TE	-4117
▁itxi	-4118
▁dirudi	-4119
▁Batasuneko	-4120
olan	-4121
▁Hal	-4122
ico	-4123
▁Med	-4124
▁kontzer	-4125
▁herria	-4126
iket	-4127
▁jendea	-4128
▁ahol	-4129
kariak	-4130
▁ohia	-4131
▁William	-4132
▁Gen	-4133
▁beran	-4134
▁Bid	-4135
▁ital	-4136
ogei	-4137
▁Portugal	-4138
oetan	-4139
iziala	-4140
▁onak	-4141
▁bos	-4142
▁larri	-4143
▁Erro	-4144
▁Gra	-4145
▁ahaz	-4146
▁Mat	-4147
▁dolar	-4148
▁jartzeko	-4149
▁uzteko	-4150
uza	-4151
▁luzea	-4152
▁alaba	-4153
▁garaipen	-4154
▁Nik	-4155
ketaren	-4156
▁termin	-4157
▁emakumeen	-4158
▁ezar	-4159
▁Oharra	-4160
oniako	-4161
▁...	-4162
▁sorr	-4163
▁hasierako	-4164
▁band	-4165
▁xede	-4166
entif	-4167
▁kolore	-4168
▁arraza	-4169
▁erakusketa	-4170
▁Lehenengo	-4171
▁ond	-4172
▁erromat	-4173
▁Kas	-4174
▁nago	-4175
degia	-4176
▁baldintza	-4177
zioaren	-4178
▁antzinako	-4179
▁Manuel	-4180
▁Institu	-4181
▁zientif	-4182
▁idatzia	-4183
▁printz	-4184
▁Agir	-4185
▁mehatx	-4186
▁saioa	-4187
▁behintzat	-4188
▁porro	-4189
tso	-4190
▁mis	-4191
▁Ibarretx	-4192
▁proposamena	-4193
etakoa	-4194
arb	-4195
▁zigorra	-4196
▁baiez	-4197
atiboak	-4198
▁britain	-4199
▁mold	-4200
▁direlako	-4201
ester	-4202
▁Segur	-4203
uv	-4204
abea	-4205
▁borond	-4206
▁deritz	-4207
▁Fre	-4208
eusk	-4209
▁identif	-4210
▁Horretarako	-4211
AK	-4212
▁argu	-4213
▁eskainiko	-4214
▁ekonomia	-4215
tas	-4216
ikaren	-4217
▁presta	-4218
▁argitzen	-4219
▁arrazoi	-4220
▁us	-4221
▁tenper	-4222
▁are	-4223
▁Hitz	-4224
▁Aldun	-4225
itura	-4226
▁Lap	-4227
turak	-4228
unea	-4229
▁Garaia	-4230
entziak	-4231
▁Bad	-4232
▁ile	-4233
▁Ibil	-4234
▁zara	-4235
▁Zor	-4236
▁zauritu	-4237
arretan	-4238
▁toki	-4239
ipl	-4240
▁Ingalater	-4241
//	-4242
▁bitarteko	-4243
uek	-4244
▁Bro	-4245
▁kons	-4246
▁aurp	-4247
én	-4248
▁egotea	-4249
▁Cam	-4250
▁gir	-4251
▁Israelgo	-4252
▁saldu	-4253
▁labor	-4254
▁Zara	-4255
ish	-4256
▁hauta	-4257
▁kostalde	-4258
▁Bizk	-4259
▁Ertzain	-4260
bal	-4261
▁krista	-4262
▁hiriburua	-4263
ise	-4264
▁Brasilgo	-4265
▁hegoaldean	-4266
▁dirua	-4267
irekin	-4268
ezen	-4269
▁konk	-4270
▁mas	-4271
telehen	-4272
▁garrantzitsuen	-4273
▁Jai	-4274
▁beder	-4275
▁haiz	-4276
▁Nola	-4277
alax	-4278
▁jarraituko	-4279
▁igandean	-4280
▁Mail	-4281
▁Jesus	-4282
▁atzetik	-4283
▁aurtengo	-4284
itiko	-4285
▁urrun	-4286
▁Unibertsitateko	-4287
errik	-4288
▁errespeta	-4289
▁Mun	-4290
▁mag	-4291
▁Pat	-4292
ño	-4293
▁semea	-4294
chem	-4295
▁Kultura	-4296
idaia	-4297
▁bozeram	-4298
txa	-4299
▁Im	-4300
▁bazen	-4301
▁abest	-4302
ikazio	-4303
▁aktib	-4304
▁egokia	-4305
▁Batuetan	-4306
▁urtero	-4307
izatu	-4308
▁komunitate	-4309
▁askoren	-4310
▁eragile	-4311
▁zuzendar	-4312
▁Hen	-4313
ienak	-4314
▁Mah	-4315
abel	-4316
▁balitz	-4317
▁r	-4318
Eren	-4319
▁bah	-4320
▁Francis	-4321
azu	-4322
AL	-4323
▁adibide	-4324
▁bultzatu	-4325
▁horretatik	-4326
▁Mur	-4327
▁telefon	-4328
erm	-4329
▁Kal	-4330
▁handik	-4331
agarr	-4332
▁joera	-4333
▁badute	-4334
intzat	-4335
▁Gran	-4336
gana	-4337
▁aurki	-4338
▁Art	-4339
▁estrein	-4340
esten	-4341
▁plazar	-4342
▁burdin	-4343
▁Washington	-4344
▁Euskadiko	-4345
▁herriekin	-4346
▁denak	-4347
▁aurkeztuko	-4348
▁Itz	-4349
ción	-4350
▁aztertzen	-4351
lana	-4352
▁Air	-4353
▁ets	-4354
▁laguntzen	-4355
▁Espainian	-4356
ota	-4357
▁eskutik	-4358
://	-4359
="	-4360
ierre	-4361
▁Dur	-4362
▁erron	-4363
▁kanpaina	-4364
akoak	-4365
▁Fernando	-4366
▁gaitu	-4367
▁Park	-4368
▁Kl	-4369
▁aurkitzen	-4370
▁zinego	-4371
▁Alex	-4372
cas	-4373
▁liz	-4374
rc	-4375
▁odol	-4376
▁asteroide	-4377
▁proba	-4378
▁ETB	-4379
▁Larr	-4380
▁erlijio	-4381
uf	-4382
xka	-4383
ieta	-4384
▁Kongres	-4385
tatuko	-4386
▁argiket	-4387
atorr	-4388
▁gaind	-4389
eroak	-4390
ible	-4391
▁lei	-4392
▁indarrean	-4393
atzeak	-4394
▁esle	-4395
tapen	-4396
▁Geh	-4397
pin	-4398
▁Angel	-4399
eph	-4400
gintza	-4401
eari	-4402
▁lig	-4403
ym	-4404
duz	-4405
▁errus	-4406
▁berretsi	-4407
▁jur	-4408
▁giro	-4409
▁gazteak	-4410
▁esanahi	-4411
amerik	-4412
▁txarte	-4413
bid	-4414
atzaileek	-4415
▁laug	-4416
ante	-4417
▁indarra	-4418
▁garaipena	-4419
▁Handia	-4420
▁bestalde	-4421
▁gutxien	-4422
▁ELA	-4423
▁jokatzeko	-4424
iantza	-4425
▁gainetik	-4426
osta	-4427
▁urteotan	-4428
oso	-4429
▁ezberdinak	-4430
igr	-4431
▁Muse	-4432
▁Argentin	-4433
▁ikastar	-4434
▁ostir	-4435
raren	-4436
▁ikusita	-4437
▁eguneroko	-4438
▁los	-4439
▁kalitate	-4440
ikak	-4441
▁dadin	-4442
▁Kirol	-4443
▁aberats	-4444
és	-4445
▁harremanak	-4446
▁erauz	-4447
▁Cr	-4448
erraren	-4449
▁ibaiaren	-4450
▁Hasiera	-4451
▁ken	-4452
ainak	-4453
);	-4454
▁argazki	-4455
etari	-4456
▁Irlandako	-4457
▁bot	-4458
atiboki	-4459
....	-4460
▁dezakete	-4461
▁aurrez	-4462
▁zerikus	-4463
▁Ang	-4464
▁ju	-4465
▁mun	-4466
arau	-4467
▁fran	-4468
"),	-4469
▁joateko	-4470
▁polizia	-4471
▁Eskoziako	-4472
▁belaun	-4473
mug	-4474
▁zelako	-4475
▁ahalbide	-4476
ity	-4477
▁Me	-4478
▁honi	-4479
▁zuzendaria	-4480
▁kolon	-4481
▁sare	-4482
▁emaitzak	-4483
▁zuzendariak	-4484
▁matxin	-4485
▁kartzel	-4486
▁beraien	-4487
▁uniberts	-4488
▁Zap	-4489
▁garaiko	-4490
▁ohartarazi	-4491
tasunez	-4492
▁paus	-4493
▁Inguru	-4494
▁Hond	-4495
▁piztu	-4496
▁Batuen	-4497
▁dagoeneko	-4498
▁deial	-4499
arritako	-4500
azen	-4501
aliforn	-4502
unaren	-4503
degi	-4504
▁presidentea	-4505
etrol	-4506
▁lotzen	-4507
uth	-4508
▁Real	-4509
elan	-4510
▁Espainia	-4511
▁hots	-4512
▁tresnetako	-4513
▁Mc	-4514
▁grez	-4515
▁oztop	-4516
▁koordin	-4517
▁gehitu	-4518
▁gonbid	-4519
▁Uz	-4520
▁diputatu	-4521
▁Pan	-4522
▁Gobernuaren	-4523
agarriak	-4524
▁program	-4525
▁Tom	-4526
▁parta	-4527
▁zuzena	-4528
▁egunetan	-4529
▁balioa	-4530
▁berreskur	-4531
▁errit	-4532
▁baitan	-4533
rob	-4534
▁orb	-4535
▁mila	-4536
▁iparraldean	-4537
▁berezi	-4538
▁aldak	-4539
iatik	-4540
▁gaz	-4541
▁parti	-4542
▁aritzen	-4543
alez	-4544
atok	-4545
▁Zah	-4546
▁dia	-4547
ach	-4548
tziaren	-4549
▁lir	-4550
▁azterketa	-4551
▁erakus	-4552
▁*	-4553
leen	-4554
▁beharrean	-4555
frantses	-4556
▁Pla	-4557
▁bake	-4558
▁Barne	-4559
▁psiko	-4560
▁Grez	-4561
▁Txek	-4562
▁iturr	-4563
▁lasai	-4564
▁zehark	-4565
▁zih	-4566
▁Egip	-4567
▁Paul	-4568
▁artista	-4569
▁bax	-4570
araren	-4571
▁etapa	-4572
▁jatorrizko	-4573
▁ministroak	-4574
▁elektron	-4575
plat	-4576
▁gehienetan	-4577
▁animal	-4578
▁bertsol	-4579
▁txapeldun	-4580
▁egu	-4581
▁Pl	-4582
▁antzerki	-4583
▁literatura	-4584
▁Liga	-4585
▁plata	-4586
▁hegoaldeko	-4587
▁José	-4588
▁Errusiako	-4589
▁Bir	-4590
▁Berria	-4591
edr	-4592
▁muse	-4593
▁baduzu	-4594
▁estil	-4595
▁jatorria	-4596
ons	-4597
▁inau	-4598
▁handien	-4599
▁auzo	-4600
▁Guztira	-4601
▁$	-4602
▁aditu	-4603
▁lankide	-4604
▁milaka	-4605
▁desberdinak	-4606
ole	-4607
▁jainko	-4608
▁Hemen	-4609
tasunean	-4610
▁katal	-4611
kie	-4612
UR	-4613
▁les	-4614
▁Gai	-4615
▁egitera	-4616
▁ku	-4617
▁bakoitzean	-4618
tzeari	-4619
▁Ren	-4620
▁zitza	-4621
▁datuak	-4622
▁klub	-4623
▁aukerak	-4624
ati	-4625
▁Orduan	-4626
▁iriste	-4627
▁zizkion	-4628
▁Ju	-4629
ekn	-4630
Artikulu	-4631
▁erreferentzia	-4632
▁disk	-4633
▁aipamen	-4634
▁albiste	-4635
ulta	-4636
▁idazten	-4637
▁Kultur	-4638
▁Okzitaniako	-4639
▁manifestazio	-4640
tikoa	-4641
kizuna	-4642
▁pasatu	-4643
▁sein	-4644
▁txikiak	-4645
▁terror	-4646
▁politikoak	-4647
dio	-4648
eratzen	-4649
▁aski	-4650
stituz	-4651
▁ordezkatu	-4652
▁Bon	-4653
▁Gur	-4654
▁Patx	-4655
▁trop	-4656
ON	-4657
”.	-4658
enda	-4659
▁Aita	-4660
▁zituzte	-4661
OR	-4662
imen	-4663
▁joaten	-4664
▁bikote	-4665
don	-4666
▁iristen	-4667
▁src	-4668
templat	-4669
css	-4670
talak	-4671
▁au	-4672
styles	-4673
estyles	-4674
▁Nafarroan	-4675
templatestyles	-4676
ketako	-4677
▁Land	-4678
▁aurreikus	-4679
▁aintzat	-4680
▁atzoko	-4681
▁emazte	-4682
▁akordioa	-4683
▁sola	-4684
▁Se	-4685
▁aztar	-4686
▁karr	-4687
▁agerian	-4688
▁abesti	-4689
uteko	-4690
ute	-4691
▁begi	-4692
Saint	-4693
▁kontak	-4694
▁banaketa	-4695
igarrena	-4696
▁Lor	-4697
▁gorputz	-4698
▁ni	-4699
anak	-4700
ingo	-4701
▁kolektib	-4702
duak	-4703
▁Cal	-4704
▁barrei	-4705
▁Av	-4706
▁gez	-4707
▁kideek	-4708
▁Fel	-4709
errek	-4710
▁Del	-4711
▁industria	-4712
▁Jok	-4713
lagun	-4714
aponieraz	-4715
▁Gr	-4716
▁neska	-4717
▁mais	-4718
▁jolas	-4719
oia	-4720
▁Mas	-4721
▁aske	-4722
▁pentsatzen	-4723
eaz	-4724
ood	-4725
▁Joseba	-4726
▁euskarazko	-4727
▁Ter	-4728
abet	-4729
▁zik	-4730
▁baliabide	-4731
▁dutelako	-4732
▁teor	-4733
▁Bilbo	-4734
▁hegazkin	-4735
Atal	-4736
etek	-4737
tsa	-4738
▁Ob	-4739
▁erraldo	-4740
▁suk	-4741
▁bihurtzen	-4742
▁erreal	-4743
▁Euskara	-4744
frantsesez	-4745
▁Enpres	-4746
iria	-4747
▁eutsi	-4748
▁ume	-4749
ateak	-4750
▁buka	-4751
tom	-4752
▁Harr	-4753
nas	-4754
egian	-4755
▁hom	-4756
▁antolatzen	-4757
▁tu	-4758
ni	-4759
▁Sam	-4760
▁iturri	-4761
▁ditugun	-4762
▁Mac	-4763
OS	-4764
▁ordezkariak	-4765
reg	-4766
▁Los	-4767
▁Ekialde	-4768
▁lekuko	-4769
▁Tok	-4770
▁Frantzian	-4771
▁guk	-4772
▁agian	-4773
▁legea	-4774
egina	-4775
▁UP	-4776
▁ezez	-4777
▁mekan	-4778
hol	-4779
uy	-4780
▁integr	-4781
heim	-4782
▁ton	-4783
ikoetan	-4784
▁/&	-4785
tzaileek	-4786
▁aldatzen	-4787
▁meto	-4788
▁errepubl	-4789
▁Ant	-4790
▁argudi	-4791
ulu	-4792
▁Def	-4793
▁ikerk	-4794
yc	-4795
dizio	-4796
▁Batasunaren	-4797
▁eginda	-4798
▁gorr	-4799
▁autonom	-4800
▁Jokoetan	-4801
▁estilo	-4802
▁Iruñean	-4803
▁Erkide	-4804
▁galax	-4805
▁finantziazio	-4806
anek	-4807
itea	-4808
▁mik	-4809
▁dra	-4810
▁zeuk	-4811
▁Alb	-4812
▁mahai	-4813
▁Gil	-4814
ikide	-4815
▁idatzitako	-4816
▁Goi	-4817
▁batzuekin	-4818
▁laugarren	-4819
▁gehiagotan	-4820
▁É	-4821
posizio	-4822
▁Saria	-4823
▁abian	-4824
izp	-4825
▁eskol	-4826
▁ikuspegi	-4827
▁goizean	-4828
▁sarrera	-4829
▁lotutako	-4830
usa	-4831
▁Asko	-4832
▁erosi	-4833
▁suf	-4834
▁duzue	-4835
ateke	-4836
▁Kat	-4837
▁kalean	-4838
▁Ja	-4839
▁Zuzend	-4840
▁zuzendutako	-4841
elesez	-4842
▁no	-4843
▁hazi	-4844
ortzen	-4845
iet	-4846
▁segun	-4847
▁Giza	-4848
akizun	-4849
▁Azkenik	-4850
▁buruzagi	-4851
rows	-4852
▁zuelako	-4853
rem	-4854
▁Geografia	-4855
▁teoria	-4856
▁Ph	-4857
▁garrantzi	-4858
▁hid	-4859
▁arreta	-4860
▁kategorian	-4861
▁Rom	-4862
▁irits	-4863
▁konplex	-4864
▁militar	-4865
▁zuri	-4866
▁i	-4867
▁")	-4868
▁benetan	-4869
▁daitekeen	-4870
▁Sakon	-4871
▁Sp	-4872
ETA	-4873
▁ebak	-4874
▁Poliziak	-4875
▁errek	-4876
ew	-4877
▁bitx	-4878
▁dorre	-4879
dez	-4880
deak	-4881
▁hark	-4882
ontzeko	-4883
▁Camp	-4884
▁eraginkor	-4885
ID	-4886
▁Minister	-4887
▁aus	-4888
▁Batuko	-4889
▁espazio	-4890
▁inp	-4891
▁ezaugarriak	-4892
arn	-4893
▁Nav	-4894
▁langileen	-4895
▁aret	-4896
▁Norm	-4897
azp	-4898
▁Sozial	-4899
▁bidaia	-4900
▁ahul	-4901
▁Aral	-4902
fib	-4903
▁libre	-4904
▁iparraldeko	-4905
▁doa	-4906
▁hauteskundeetan	-4907
iag	-4908
▁kab	-4909
▁Tekn	-4910
▁bizirik	-4911
lov	-4912
▁leher	-4913
▁Uk	-4914
▁kalkul	-4915
aldetik	-4916
▁Ezaugarriak	-4917
ipena	-4918
▁Elkar	-4919
inguru	-4920
▁diogu	-4921
▁beharrezko	-4922
▁iruz	-4923
▁Pirin	-4924
▁Sil	-4925
logia	-4926
▁errealitate	-4927
▁handirik	-4928
▁Pau	-4929
yr	-4930
atuan	-4931
atiboa	-4932
▁egina	-4933
▁jartzea	-4934
▁Mexiko	-4935
eeeeee	-4936
▁Horietatik	-4937
ffffff	-4938
▁margolaria	-4939
rowsub	-4940
colformat	-4941
rowsubformat	-4942
▁Aber	-4943
istako	-4944
▁banatzen	-4945
▁eskaintza	-4946
▁inork	-4947
arm	-4948
▁asmatu	-4949
▁beregan	-4950
tzentr	-4951
▁isl	-4952
▁konstela	-4953
azz	-4954
▁Nek	-4955
imoa	-4956
adore	-4957
▁aldarrikatu	-4958
cel	-4959
katzen	-4960
▁erakundeak	-4961
▁dib	-4962
▁hondakin	-4963
▁desagertu	-4964
▁laur	-4965
▁espezial	-4966
▁Raf	-4967
▁Oin	-4968
▁normalean	-4969
▁para	-4970
estu	-4971
▁kritikatu	-4972
istentzia	-4973
arazten	-4974
▁kontatzen	-4975
▁kontseil	-4976
▁abar	-4977
doko	-4978
▁Ex	-4979
roga	-4980
▁gos	-4981
▁epaileak	-4982
▁gehienek	-4983
▁postu	-4984
apean	-4985
▁elkarteak	-4986
▁baitute	-4987
▁Gipuzkoa	-4988
▁ziteke	-4989
▁protagonista	-4990
▁mur	-4991
UN	-4992
atzearen	-4993
▁azkar	-4994
engatik	-4995
▁izatera	-4996
▁Jan	-4997
▁orri	-4998
bia	-4999
toa	-5000
▁halaber	-5001
▁Bost	-5002
▁atentatu	-5003
ulazio	-5004
▁azpi	-5005
▁eragindako	-5006
▁Musika	-5007
duen	-5008
▁log	-5009
▁leporatu	-5010
▁hartutako	-5011
▁baldintz	-5012
etaz	-5013
▁Bizitza	-5014
▁May	-5015
osti	-5016
▁Berts	-5017
txean	-5018
▁Mendebaldeko	-5019
▁iritziz	-5020
▁laguntzeko	-5021
▁Rodr	-5022
errit	-5023
ión	-5024
▁garaia	-5025
▁pentsatu	-5026
▁Patxi	-5027
▁alkate	-5028
eraino	-5029
▁kontserb	-5030
oth	-5031
ulo	-5032
▁etorkin	-5033
▁urterekin	-5034
▁Oz	-5035
kop	-5036
▁Ondorioz	-5037
▁kantu	-5038
▁Sistema	-5039
▁matem	-5040
▁denboraldian	-5041
▁badak	-5042
▁arazoa	-5043
Or	-5044
▁hautagai	-5045
▁datozen	-5046
onte	-5047
one	-5048
▁Irrat	-5049
burg	-5050
▁Ola	-5051
arrok	-5052
▁aintz	-5053
▁finala	-5054
▁bederatzi	-5055
▁Gir	-5056
▁erabiltzeko	-5057
▁esperientzia	-5058
▁oinarritutako	-5059
ezp	-5060
japonieraz	-5061
izazioa	-5062
▁igeltseroa	-5063
▁Mag	-5064
leku	-5065
arrizk	-5066
han	-5067
;/	-5068
▁haurren	-5069
▁Herriaren	-5070
▁gorabehera	-5071
imena	-5072
▁eskuin	-5073
▁zuha	-5074
▁arriskua	-5075
▁bestea	-5076
▁eskualdeko	-5077
▁paper	-5078
▁to	-5079
▁daitezkeen	-5080
▁joango	-5081
lus	-5082
perador	-5083
▁hitzetan	-5084
EK	-5085
▁erreak	-5086
▁deklar	-5087
▁direnean	-5088
ozko	-5089
▁Bush	-5090
▁Her	-5091
▁euroko	-5092
▁liber	-5093
"-	-5094
▁herritarrek	-5095
ius	-5096
▁eran	-5097
▁okin	-5098
▁Aurreko	-5099
▁Adibidez	-5100
▁Eskub	-5101
▁Tolos	-5102
▁Sa	-5103
▁abiadura	-5104
nar	-5105
▁jener	-5106
▁ildo	-5107
▁zaigu	-5108
▁mendebaldeko	-5109
▁asmo	-5110
duan	-5111
itak	-5112
dina	-5113
▁lanaren	-5114
▁hainbeste	-5115
ikoek	-5116
▁Rich	-5117
elak	-5118
▁zar	-5119
AI	-5120
▁posible	-5121
leg	-5122
▁publikoa	-5123
▁Ala	-5124
▁Bra	-5125
▁izar	-5126
eros	-5127
▁Batasuna	-5128
bas	-5129
ezu	-5130
ft	-5131
▁bestela	-5132
▁botere	-5133
Ako	-5134
▁egunero	-5135
▁dakit	-5136
▁larunbatean	-5137
uch	-5138
▁irabazteko	-5139
▁Sim	-5140
▁Bilba	-5141
arrizko	-5142
▁badaude	-5143
▁me	-5144
▁Zur	-5145
▁egotzi	-5146
▁poliz	-5147
ieran	-5148
▁jurid	-5149
orekin	-5150
komun	-5151
can	-5152
▁zientzial	-5153
▁argia	-5154
ilari	-5155
▁Miarr	-5156
▁Herriak	-5157
▁Donostia	-5158
▁eguneko	-5159
▁Lou	-5160
▁akus	-5161
errig	-5162
▁Sakontzeko	-5163
▁Kur	-5164
▁espainiar	-5165
eda	-5166
▁Kub	-5167
▁aldaketak	-5168
▁Ezker	-5169
▁urtebete	-5170
▁Konstituzio	-5171
▁antzerk	-5172
▁Mexikoko	-5173
▁ardatz	-5174
▁artist	-5175
▁elkarren	-5176
▁positib	-5177
▁batu	-5178
▁eremua	-5179
▁ukatu	-5180
▁izenak	-5181
entziaren	-5182
▁garrantzitsuena	-5183
Espain	-5184
utr	-5185
▁diskoa	-5186
arazteko	-5187
▁txarra	-5188
▁itxarop	-5189
▁nesk	-5190
▁piez	-5191
▁+	-5192
▁handitu	-5193
▁ditzake	-5194
▁zenetik	-5195
▁argitu	-5196
▁bakoitza	-5197
▁merkataritza	-5198
▁bikaina	-5199
atus	-5200
▁postuan	-5201
▁hauteskundeak	-5202
aburu	-5203
▁teknolog	-5204
▁sortzea	-5205
oek	-5206
▁saiak	-5207
▁Mir	-5208
▁zurgina	-5209
▁Batzordeak	-5210
▁Parisko	-5211
tzar	-5212
▁Sev	-5213
▁dudan	-5214
▁barreiatutako	-5215
loj	-5216
ismoak	-5217
▁Itzul	-5218
▁independente	-5219
▁Alav	-5220
▁gil	-5221
▁metal	-5222
▁bakoitzaren	-5223
▁Gaz	-5224
arrib	-5225
▁Zabal	-5226
▁Galiz	-5227
▁egiaz	-5228
▁Zerbitz	-5229
vo	-5230
Ir	-5231
▁Hern	-5232
▁eratu	-5233
kia	-5234
▁geldi	-5235
▁jasoko	-5236
▁Kanpo	-5237
▁pez	-5238
▁Fund	-5239
okrat	-5240
▁gaixotasun	-5241
detan	-5242
▁azkenik	-5243
cy	-5244
mail	-5245
▁Gol	-5246
▁artikulu	-5247
tun	-5248
eden	-5249
▁orr	-5250
▁etxea	-5251
etetan	-5252
▁Mendi	-5253
▁Mark	-5254
▁sailburu	-5255
▁ekoizpen	-5256
▁nahian	-5257
▁Pen	-5258
▁erref	-5259
▁Gasteizen	-5260
igin	-5261
▁deia	-5262
▁ahala	-5263
aj	-5264
▁Lin	-5265
ontzi	-5266
▁Txekiar	-5267
▁Ver	-5268
▁tratamendu	-5269
utik	-5270
izkien	-5271
▁bideo	-5272
▁zergatik	-5273
lès	-5274
razia	-5275
▁Egoera	-5276
▁apar	-5277
▁historian	-5278
▁mantendu	-5279
▁legebiltz	-5280
▁gaia	-5281
▁Martx	-5282
zk	-5283
▁eskas	-5284
▁garen	-5285
fil	-5286
▁jorr	-5287
erbeh	-5288
eriak	-5289
▁Port	-5290
▁bort	-5291
▁Duela	-5292
▁George	-5293
tronom	-5294
▁lagunek	-5295
ikuntz	-5296
▁Inform	-5297
▁Nire	-5298
▁iturgina	-5299
ock	-5300
▁Txinako	-5301
▁Por	-5302
sis	-5303
▁ilun	-5304
▁Ligako	-5305
▁zutab	-5306
▁baztertu	-5307
▁Bla	-5308
uruz	-5309
euskaraz	-5310
▁Andre	-5311
▁Venez	-5312
ulak	-5313
▁honela	-5314
aingo	-5315
behineko	-5316
aux	-5317
▁Kos	-5318
▁oinarritzen	-5319
▁Palestin	-5320
etz	-5321
asuna	-5322
etrora	-5323
▁kazetari	-5324
▁Austral	-5325
atika	-5326
▁erauzte	-5327
▁aldea	-5328
▁Hirugarren	-5329
▁erakar	-5330
oski	-5331
▁printzip	-5332
▁Udako	-5333
▁Gern	-5334
turatu	-5335
▁zigor	-5336
▁komunikabide	-5337
yp	-5338
▁sentitzen	-5339
▁burutu	-5340
▁Dis	-5341
▁ero	-5342
▁multzo	-5343
antzia	-5344
▁Errege	-5345
▁hartako	-5346
duta	-5347
igny	-5348
▁Akt	-5349
▁elektro	-5350
▁senide	-5351
▁ebaz	-5352
▁gizartearen	-5353
▁nabarmena	-5354
▁dutenez	-5355
▁Agin	-5356
oper	-5357
tzeaz	-5358
▁izenburu	-5359
▁anaia	-5360
▁ohikoa	-5361
▁erakuts	-5362
zer	-5363
▁biho	-5364
▁tabern	-5365
▁Ud	-5366
arrerak	-5367
▁balor	-5368
aw	-5369
Uko	-5370
▁altern	-5371
▁(%	-5372
str	-5373
▁dan	-5374
▁lok	-5375
▁sum	-5376
▁Britain	-5377
▁fron	-5378
▁baimena	-5379
▁agerr	-5380
▁motako	-5381
▁asteburu	-5382
▁opar	-5383
▁Eskola	-5384
▁baititu	-5385
▁telesail	-5386
geh	-5387
agil	-5388
▁hedabide	-5389
unk	-5390
menak	-5391
▁Zuzen	-5392
▁banatu	-5393
▁urtera	-5394
olk	-5395
▁harremana	-5396
alki	-5397
▁tradizional	-5398
▁kola	-5399
ith	-5400
mah	-5401
tsuak	-5402
▁galaxia	-5403
▁Atx	-5404
▁greba	-5405
▁ahalik	-5406
▁landare	-5407
▁gauean	-5408
▁marka	-5409
illo	-5410
▁jendeak	-5411
ques	-5412
▁guztira	-5413
ingelesez	-5414
▁apaiz	-5415
ikar	-5416
▁hobea	-5417
atiko	-5418
▁astelehen	-5419
."	-5420
ungo	-5421
ortz	-5422
▁taldetan	-5423
ileko	-5424
zed	-5425
▁amerik	-5426
li	-5427
▁aurreratu	-5428
apa	-5429
▁hasieratik	-5430
▁Di	-5431
▁gaizki	-5432
▁eraginez	-5433
▁luzera	-5434
▁lat	-5435
itarra	-5436
▁tenperatura	-5437
eriaren	-5438
▁kontzertu	-5439
igen	-5440
▁dezan	-5441
▁inper	-5442
▁senti	-5443
▁kontzentr	-5444
ados	-5445
▁lortutako	-5446
▁ordenan	-5447
▁teknika	-5448
dunak	-5449
▁guztiei	-5450
rag	-5451
▁sinbol	-5452
▁arriskuts	-5453
peak	-5454
amenak	-5455
▁bizia	-5456
▁bilduma	-5457
Don	-5458
▁Us	-5459
▁PPk	-5460
▁Iber	-5461
▁herriaren	-5462
▁oste	-5463
▁ugar	-5464
▁aurren	-5465
▁Flor	-5466
▁Laur	-5467
▁aberas	-5468
▁elkarlan	-5469
▁etengabe	-5470
tzien	-5471
▁aitzin	-5472
▁petrol	-5473
arrari	-5474
▁ondoko	-5475
▁eska	-5476
▁lurra	-5477
▁alf	-5478
▁lasterketa	-5479
▁Vill	-5480
▁ofiziala	-5481
▁erabiltzea	-5482
bert	-5483
aleak	-5484
▁Robert	-5485
▁Ze	-5486
ultza	-5487
▁hazkunde	-5488
▁María	-5489
▁diez	-5490
laritza	-5491
ney	-5492
▁amets	-5493
▁pozik	-5494
▁dezaten	-5495
▁prestatzen	-5496
mos	-5497
biziko	-5498
▁izenean	-5499
rip	-5500
otik	-5501
ektu	-5502
▁gomend	-5503
▁berriaren	-5504
Arg	-5505
▁ezinbestekoa	-5506
ges	-5507
▁teknologia	-5508
▁Aip	-5509
▁UE	-5510
olanahi	-5511
▁oinarrituta	-5512
irak	-5513
▁jarritako	-5514
tasunik	-5515
▁XVI	-5516
▁eser	-5517
▁ikuskizun	-5518
▁Parisen	-5519
etiko	-5520
tzari	-5521
igarri	-5522
azkenean	-5523
▁Belg	-5524
▁ix	-5525
▁autobus	-5526
iana	-5527
▁partaide	-5528
▁lortzea	-5529
itzek	-5530
▁akordio	-5531
▁Moh	-5532
▁ES	-5533
▁gaitasuna	-5534
▁Lopez	-5535
▁ezartzen	-5536
▁batere	-5537
▁aztertzeko	-5538
▁Francisco	-5539
▁hitzarmen	-5540
▁ateratzeko	-5541
▁pob	-5542
▁urtea	-5543
▁erantzuk	-5544
▁Garz	-5545
▁minu	-5546
▁narr	-5547
ulman	-5548
▁plazan	-5549
▁Hauek	-5550
▁femin	-5551
▁konstelazioan	-5552
▁Jar	-5553
▁inor	-5554
Tx	-5555
▁emanez	-5556
▁bidezko	-5557
ezkoak	-5558
▁dugula	-5559
▁ondorioak	-5560
uda	-5561
▁Edo	-5562
▁alorre	-5563
asen	-5564
▁Gerran	-5565
▁osatzeko	-5566
▁eramaten	-5567
▁jarraitzeko	-5568
!!	-5569
▁defentsa	-5570
▁Mol	-5571
▁lehiaketa	-5572
▁ibaia	-5573
▁uztea	-5574
Ak	-5575
▁Industr	-5576
▁zituztela	-5577
▁Sus	-5578
▁bikain	-5579
untzak	-5580
atek	-5581
▁gradu	-5582
▁bon	-5583
▁Atlan	-5584
▁erori	-5585
▁Egia	-5586
Fran	-5587
▁Ul	-5588
▁Errepublika	-5589
ster	-5590
eportu	-5591
duago	-5592
▁bizk	-5593
ibo	-5594
onak	-5595
▁mugak	-5596
▁Bea	-5597
▁Zein	-5598
▁Uh	-5599
sin	-5600
▁Kopa	-5601
▁Pab	-5602
omb	-5603
▁Eguzki	-5604
▁gogoratu	-5605
▁dituzu	-5606
▁Frank	-5607
▁Udalerriaren	-5608
▁cap	-5609
▁prem	-5610
▁baldintzak	-5611
▁sartzea	-5612
▁ox	-5613
estera	-5614
Erro	-5615
itia	-5616
▁Justizia	-5617
▁posta	-5618
▁iruditzen	-5619
tzaileen	-5620
▁sektore	-5621
▁finkatu	-5622
▁Anfib	-5623
▁akats	-5624
▁Leon	-5625
▁arin	-5626
mendua	-5627
cus	-5628
orea	-5629
▁hartuz	-5630
▁irudiak	-5631
▁etxera	-5632
▁lirateke	-5633
arta	-5634
▁irudia	-5635
▁ulertzen	-5636
▁kaler	-5637
▁ahaztu	-5638
stituzional	-5639
urrun	-5640
▁hizkun	-5641
▁zioen	-5642
▁gogoan	-5643
▁erago	-5644
ele	-5645
▁moduko	-5646
▁Van	-5647
▁arrantz	-5648
lanak	-5649
▁kate	-5650
▁ezarritako	-5651
▁gaztea	-5652
▁zutenean	-5653
▁harremanetan	-5654
▁Lag	-5655
▁Plaz	-5656
▁Wil	-5657
Beste	-5658
▁egunotan	-5659
omo	-5660
teren	-5661
▁liburuak	-5662
▁XVIII	-5663
▁bilatzen	-5664
igun	-5665
▁Behin	-5666
ize	-5667
▁arma	-5668
▁gehieg	-5669
▁etn	-5670
▁berresk	-5671
izu	-5672
▁apaindegia	-5673
▁Hu	-5674
ifer	-5675
urg	-5676
▁komen	-5677
ganistan	-5678
▁honekin	-5679
▁Argu	-5680
▁Do	-5681
▁zabaltzen	-5682
tiz	-5683
▁Anfibioen	-5684
▁ederra	-5685
▁gutxira	-5686
▁urrezko	-5687
▁negoziazio	-5688
▁gorp	-5689
▁Ingalaterrako	-5690
▁mobil	-5691
si	-5692
▁ospatu	-5693
▁Ezin	-5694
▁Bre	-5695
▁ipuin	-5696
▁egitur	-5697
▁Ildo	-5698
▁besteko	-5699
▁taldeek	-5700
▁metodo	-5701
▁Mel	-5702
▁Zien	-5703
▁pan	-5704
▁Ser	-5705
gailu	-5706
▁sozio	-5707
▁IV	-5708
▁Karlos	-5709
▁zientzia	-5710
Eusk	-5711
▁Pre	-5712
▁Parlamen	-5713
▁istrip	-5714
▁praktik	-5715
▁dizk	-5716
▁galdera	-5717
▁kur	-5718
▁Bos	-5719
▁ontzi	-5720
▁pair	-5721
▁ser	-5722
▁Besteak	-5723
▁natiboak	-5724
▁selekzio	-5725
▁babesteko	-5726
▁feder	-5727
▁pilot	-5728
uena	-5729
▁James	-5730
dok	-5731
As	-5732
▁zitzai	-5733
aden	-5734
▁zitzaien	-5735
ann	-5736
):	-5737
▁tip	-5738
▁etab	-5739
▁arloan	-5740
▁ekonomikoa	-5741
auk	-5742
▁Bestetik	-5743
erry	-5744
▁esperi	-5745
▁epe	-5746
▁ETAren	-5747
▁filmak	-5748
▁arrisku	-5749
tain	-5750
TU	-5751
▁Tran	-5752
▁musikari	-5753
▁nuke	-5754
▁blok	-5755
▁ekialdean	-5756
▁seku	-5757
▁salaketa	-5758
▁dik	-5759
iarraren	-5760
wn	-5761
▁haserre	-5762
▁hasteko	-5763
▁nagusitu	-5764
▁mendebaldean	-5765
▁Nazionaleko	-5766
▁indarkeria	-5767
▁Merk	-5768
▁zorion	-5769
mendi	-5770
▁galdetu	-5771
▁auzit	-5772
▁duenean	-5773
▁fen	-5774
▁Gipuzkoan	-5775
olf	-5776
hun	-5777
▁poten	-5778
▁gainontzeko	-5779
▁Sobi	-5780
▁Batuak	-5781
▁Eguna	-5782
▁grabatu	-5783
▁Pirinio	-5784
▁txirrindulari	-5785
isio	-5786
gilea	-5787
▁Gau	-5788
entziako	-5789
pel	-5790
▁bulegoa	-5791
▁lehia	-5792
tasunari	-5793
retu	-5794
▁egoki	-5795
▁kir	-5796
keria	-5797
▁idazlea	-5798
▁jokalariak	-5799
▁ekolog	-5800
▁beltz	-5801
iaga	-5802
▁erasoa	-5803
▁zirenean	-5804
udio	-5805
▁hamaika	-5806
▁ant	-5807
apenak	-5808
▁dinam	-5809
▁zintz	-5810
▁elkarrizk	-5811
▁erantzuna	-5812
▁Pop	-5813
akor	-5814
▁Berlin	-5815
▁Txapelketan	-5816
ér	-5817
▁arratsaldean	-5818
▁htt	-5819
▁berreskuratu	-5820
▁Riv	-5821
▁gazteen	-5822
▁murgil	-5823
etasuna	-5824
▁esleitutako	-5825
ram	-5826
ilen	-5827
▁bertsio	-5828
▁Wal	-5829
▁erdialdean	-5830
iti	-5831
▁inberts	-5832
▁isur	-5833
▁aurkezten	-5834
mont	-5835
▁Kaliforn	-5836
▁argiketaria	-5837
▁bana	-5838
▁Guardia	-5839
▁jend	-5840
▁lanpos	-5841
idura	-5842
▁Sain	-5843
▁irakaslea	-5844
▁Hizkuntza	-5845
▁horietatik	-5846
▁glob	-5847
▁Bizkaia	-5848
—,	-5849
▁eraikitzeko	-5850
▁baso	-5851
opa	-5852
▁zaiz	-5853
var	-5854
▁esango	-5855
▁galtzen	-5856
▁lortuko	-5857
linois	-5858
US	-5859
ifik	-5860
ibel	-5861
▁gustura	-5862
▁Nahiz	-5863
▁katol	-5864
▁sortua	-5865
▁Part	-5866
▁xeh	-5867
▁irag	-5868
▁sines	-5869
▁esparru	-5870
▁Sab	-5871
▁liburuan	-5872
karen	-5873
▁ekarriko	-5874
ikari	-5875
▁dents	-5876
▁betetzeko	-5877
▁egur	-5878
▁baliatu	-5879
▁garatzen	-5880
▁Ekialdeko	-5881
▁Ten	-5882
▁epea	-5883
▁auzoan	-5884
▁utziko	-5885
▁Ni	-5886
▁konpromisoa	-5887
▁EAJk	-5888
iber	-5889
▁udalerriak	-5890
▁taldearekin	-5891
▁egile	-5892
▁bul	-5893
▁sents	-5894
▁Inter	-5895
abiz	-5896
▁zaharra	-5897
▁zerbitzuak	-5898
IK	-5899
▁aztarn	-5900
▁ezagunak	-5901
oy	-5902
▁Bera	-5903
▁Idaz	-5904
iagoak	-5905
tsio	-5906
▁ibai	-5907
▁garrantzitsuak	-5908
▁Gas	-5909
▁UPN	-5910
...)	-5911
▁gin	-5912
▁guztietako	-5913
▁itsaso	-5914
▁Pin	-5915
isioa	-5916
▁abertzale	-5917
tegiak	-5918
▁legeak	-5919
▁lukete	-5920
▁cm	-5921
erekin	-5922
▁zenbaki	-5923
izioak	-5924
▁agintariek	-5925
retan	-5926
▁ete	-5927
▁gotor	-5928
Com	-5929
▁Goren	-5930
▁Baionako	-5931
▁ordenagail	-5932
▁gehiegi	-5933
durik	-5934
▁postua	-5935
▁zelarik	-5936
▁borrokan	-5937
▁plante	-5938
▁Euskadi	-5939
▁Bartzelonako	-5940
▁saioan	-5941
▁Handik	-5942
▁bizimo	-5943
last	-5944
▁enperador	-5945
iturik	-5946
▁ingurumen	-5947
uh	-5948
▁pertsonen	-5949
▁dihar	-5950
▁tamaina	-5951
▁saiatzen	-5952
▁pasatzen	-5953
▁Gel	-5954
mendeb	-5955
▁larria	-5956
▁Zinem	-5957
▁egonkor	-5958
▁kritika	-5959
etariko	-5960
itez	-5961
kal	-5962
▁Aitor	-5963
▁ikusiko	-5964
▁kron	-5965
▁He	-5966
▁Anura	-5967
▁erroldak	-5968
▁Azkenean	-5969
▁gelditzen	-5970
▁Tim	-5971
▁harrapatu	-5972
kako	-5973
egitea	-5974
▁ospital	-5975
▁lehendakariak	-5976
goaren	-5977
Ur	-5978
net	-5979
penaren	-5980
.-	-5981
hartz	-5982
etra	-5983
▁aurreneko	-5984
▁jarraituz	-5985
▁ezinezkoa	-5986
▁Proiek	-5987
▁sosten	-5988
▁Euskaraz	-5989
▁gaiak	-5990
▁lantzen	-5991
▁Ark	-5992
▁kapital	-5993
▁salbu	-5994
arretar	-5995
▁ch	-5996
▁Gasteiz	-5997
▁isil	-5998
▁bazuen	-5999
kanaka	-6000
▁urteak	-6001
▁nolabait	-6002
▁max	-6003
▁sag	-6004
▁Eraik	-6005
andez	-6006
▁landa	-6007
▁Top	-6008
▁treb	-6009
▁erdiko	-6010
ogen	-6011
▁Rh	-6012
erro	-6013
▁hip	-6014
ustea	-6015
▁esate	-6016
▁irrati	-6017
▁egokitu	-6018
▁Halere	-6019
▁hein	-6020
▁zaion	-6021
ational	-6022
▁Cla	-6023
dunen	-6024
▁zale	-6025
▁hilaren	-6026
▁Jende	-6027
▁bereziak	-6028
▁askatasuna	-6029
▁iazko	-6030
sarrerak	-6031
▁Afrikako	-6032
▁Luz	-6033
▁Kap	-6034
mes	-6035
▁Sari	-6036
▁ustezko	-6037
▁Liter	-6038
▁Afganistan	-6039
▁txer	-6040
▁europ	-6041
lude	-6042
▁hautsi	-6043
▁ekitaldia	-6044
▁Berez	-6045
▁digital	-6046
▁Jaurlaritzaren	-6047
▁este	-6048
arro	-6049
▁eginen	-6050
▁ondotik	-6051
Az	-6052
ella	-6053
▁Oscar	-6054
▁erran	-6055
▁dagokienez	-6056
▁espir	-6057
▁partidak	-6058
▁Bab	-6059
txea	-6060
▁itxur	-6061
▁igoera	-6062
▁jota	-6063
▁distantzia	-6064
▁Aka	-6065
DU	-6066
▁Bihar	-6067
▁berarekin	-6068
▁mem	-6069
▁fos	-6070
tegian	-6071
▁Ukrain	-6072
▁futbolaria	-6073
▁Nob	-6074
▁independentzia	-6075
▁konpar	-6076
ru	-6077
▁ezean	-6078
▁tokiko	-6079
▁dituztenak	-6080
atsua	-6081
▁dud	-6082
ior	-6083
▁Alf	-6084
erarekin	-6085
▁Zenbait	-6086
▁ezab	-6087
gunea	-6088
▁zuzendariaren	-6089
▁her	-6090
▁Baz	-6091
▁espetxe	-6092
▁probintzia	-6093
uki	-6094
▁efek	-6095
cion	-6096
ategoria	-6097
include	-6098
▁bertso	-6099
▁uztar	-6100
▁erasoak	-6101
arrarekin	-6102
▁lantokia	-6103
iers	-6104
entzi	-6105
▁txin	-6106
▁Ramon	-6107
bar	-6108
▁Defents	-6109
▁zikl	-6110
▁lotu	-6111
▁Alexand	-6112
▁Gales	-6113
▁beltzak	-6114
BI	-6115
▁Pa	-6116
noinclude	-6117
ezina	-6118
▁presio	-6119
▁hem	-6120
▁kargua	-6121
elle	-6122
▁kantonamendu	-6123
alu	-6124
▁erronka	-6125
▁sindikatu	-6126
▁gun	-6127
▁dei	-6128
▁Bizkaian	-6129
▁Sta	-6130
▁aurkezteko	-6131
▁hiriaren	-6132
▁klima	-6133
udal	-6134
▁ondasun	-6135
▁Cen	-6136
▁gurutz	-6137
atzaileen	-6138
▁mediku	-6139
ben	-6140
use	-6141
atzeari	-6142
▁autonomia	-6143
▁Jer	-6144
▁ziurtatu	-6145
▁Argumentua	-6146
▁ekialdeko	-6147
rid	-6148
▁deus	-6149
▁Honako	-6150
▁mu	-6151
▁eguzki	-6152
▁Txin	-6153
▁publikoak	-6154
▁Ug	-6155
asoak	-6156
▁solairu	-6157
▁soin	-6158
armena	-6159
▁hamarkadaren	-6160
EL	-6161
▁did	-6162
eek	-6163
ints	-6164
▁mul	-6165
▁zutenez	-6166
»."	-6167
ny	-6168
ilu	-6169
▁Jak	-6170
termin	-6171
▁badugu	-6172
▁Gorr	-6173
Errold	-6174
▁taldeen	-6175
▁Pos	-6176
Biz	-6177
ilok	-6178
GT	-6179
▁Rodrigu	-6180
▁sektor	-6181
ual	-6182
EH	-6183
▁Kir	-6184
Erroldatutako	-6185
▁erroman	-6186
▁izenarekin	-6187
▁ontz	-6188
▁kezka	-6189
▁Bilbao	-6190
▁pilota	-6191
▁Amerikako	-6192
▁Gobernuko	-6193
takoak	-6194
▁iritzia	-6195
▁kristau	-6196
osh	-6197
▁latin	-6198
▁hortik	-6199
dean	-6200
▁fund	-6201
▁langileak	-6202
▁orokorra	-6203
▁kolabor	-6204
IS	-6205
▁harri	-6206
▁soziala	-6207
▁estrategia	-6208
ani	-6209
▁merezi	-6210
▁ingen	-6211
▁norbait	-6212
▁Pablo	-6213
esp	-6214
▁Donib	-6215
▁izanda	-6216
alea	-6217
▁dim	-6218
▁pare	-6219
▁historiko	-6220
▁esanahietarako	-6221
▁lehi	-6222
▁askatu	-6223
▁zelula	-6224
olak	-6225
▁jauz	-6226
pun	-6227
▁Hiri	-6228
▁bag	-6229
▁Santiago	-6230
▁magn	-6231
▁Garc	-6232
enen	-6233
agaiak	-6234
▁capita	-6235
gabeko	-6236
▁esangur	-6237
▁bereizten	-6238
▁nau	-6239
▁natural	-6240
▁intel	-6241
aldietan	-6242
▁Mart	-6243
▁Elkarteak	-6244
▁Thom	-6245
▁daitekeela	-6246
udi	-6247
▁Ig	-6248
▁aka	-6249
▁buruak	-6250
▁funtzio	-6251
▁salmen	-6252
▁tradizio	-6253
▁arazorik	-6254
▁ikusle	-6255
▁Akadem	-6256
▁berrien	-6257
▁jarraian	-6258
adur	-6259
▁absol	-6260
▁Ka	-6261
▁Buk	-6262
▁landar	-6263
▁Teleb	-6264
agak	-6265
▁lituz	-6266
tand	-6267
▁zerbitzua	-6268
atzak	-6269
mor	-6270
▁lik	-6271
▁erabakiak	-6272
▁Berg	-6273
▁maite	-6274
▁musulman	-6275
iterran	-6276
tikoak	-6277
▁alab	-6278
▁entrenatzaile	-6279
elik	-6280
ilar	-6281
▁ikastetxe	-6282
▁baimen	-6283
▁Ekin	-6284
▁borrokatu	-6285
▁bigarrena	-6286
▁saiatuko	-6287
bax	-6288
▁aldatzeko	-6289
amb	-6290
▁Indiako	-6291
itatearen	-6292
argipena	-6293
▁hautaga	-6294
▁probintziako	-6295
▁Brus	-6296
▁urtekoa	-6297
▁ezagutzeko	-6298
ins	-6299
▁errug	-6300
▁etorkizuna	-6301
teria	-6302
ás	-6303
▁truk	-6304
▁ordezkariek	-6305
antaila	-6306
▁egoteko	-6307
▁politikari	-6308
▁BB	-6309
▁Ond	-6310
▁erdia	-6311
▁Itx	-6312
▁zatia	-6313
▁iraultz	-6314
▁Hasieran	-6315
▁Segurtasun	-6316
katzeko	-6317
▁Etor	-6318
▁Sailak	-6319
tsuen	-6320
▁Edu	-6321
Nafarr	-6322
▁Euskararen	-6323
▁Alab	-6324
ibl	-6325
▁ikusgai	-6326
▁Irakeko	-6327
▁erreferendu	-6328
esti	-6329
aurreko	-6330
▁Garr	-6331
▁mundua	-6332
▁hogeita	-6333
▁aukerarik	-6334
▁babestu	-6335
▁goizeko	-6336
▁ospatzen	-6337
▁tail	-6338
▁aldizkari	-6339
iorik	-6340
▁Aten	-6341
▁Goiz	-6342
▁Gizon	-6343
▁Herbeh	-6344
▁armada	-6345
▁adisk	-6346
Argitzeko	-6347
toak	-6348
▁hitzartu	-6349
aldek	-6350
▁biribil	-6351
▁soinu	-6352
asek	-6353
▁erla	-6354
▁garrai	-6355
▁Richard	-6356
▁Aska	-6357
▁truke	-6358
ipuzko	-6359
▁genituen	-6360
▁Sei	-6361
▁medik	-6362
erdian	-6363
▁Eliza	-6364
▁Mes	-6365
▁Barak	-6366
lon	-6367
ania	-6368
▁arre	-6369
▁motor	-6370
atibo	-6371
▁dezakegu	-6372
▁Erreg	-6373
▁irailean	-6374
telako	-6375
▁Bag	-6376
aketaren	-6377
tzu	-6378
▁laguntzak	-6379
▁Bul	-6380
▁dutena	-6381
▁mantentzen	-6382
▁arratsaldeko	-6383
▁egoten	-6384
▁hobetzeko	-6385
▁ulertu	-6386
▁sat	-6387
▁osagai	-6388
▁erabiliko	-6389
akako	-6390
▁kudeaketa	-6391
▁bron	-6392
▁tenpl	-6393
▁akadem	-6394
bul	-6395
abidea	-6396
ner	-6397
▁St	-6398
▁Aroko	-6399
▁pixka	-6400
▁antolatutako	-6401
rogen	-6402
atiba	-6403
▁kartz	-6404
▁Haw	-6405
▁bien	-6406
▁hobetu	-6407
einu	-6408
▁plana	-6409
▁barrutia	-6410
ordan	-6411
ugh	-6412
▁errepres	-6413
▁sortzaile	-6414
▁Josu	-6415
▁gizartean	-6416
▁sarritan	-6417
Ik	-6418
▁Zum	-6419
mir	-6420
paus	-6421
▁Zentro	-6422
▁bilduko	-6423
▁Vir	-6424
▁garapena	-6425
▁haute	-6426
vi	-6427
▁mintzatu	-6428
▁ikasteko	-6429
▁Gutx	-6430
▁sask	-6431
▁Michael	-6432
▁mugikor	-6433
▁plazaratu	-6434
katua	-6435
▁eraikitzen	-6436
▁zeharkatzen	-6437
▁salatzeko	-6438
zo	-6439
▁erald	-6440
▁eramateko	-6441
▁abeslari	-6442
▁mam	-6443
▁handiz	-6444
▁hasita	-6445
▁langileek	-6446
atzaren	-6447
▁baieztatu	-6448
▁kontin	-6449
yd	-6450
espen	-6451
▁barik	-6452
▁artx	-6453
erea	-6454
▁Hondarrib	-6455
▁negozi	-6456
▁harrera	-6457
ferentzia	-6458
▁aritzeko	-6459
iere	-6460
▁Seb	-6461
▁Legea	-6462
▁Araba	-6463
▁errez	-6464
▁eredua	-6465
usta	-6466
▁Erabil	-6467
▁ikar	-6468
▁beteko	-6469
ensis	-6470
orren	-6471
▁Alberto	-6472
▁gobernuaren	-6473
EBB	-6474
▁erreform	-6475
▁gizonezko	-6476
▁jud	-6477
▁molek	-6478
▁alderdiak	-6479
▁XVII	-6480
▁Nolanahi	-6481
▁Ana	-6482
▁hiltzen	-6483
▁Nap	-6484
▁aireportu	-6485
▁fus	-6486
▁datoz	-6487
ologiko	-6488
▁geltok	-6489
▁dikta	-6490
▁txarrak	-6491
▁partidan	-6492
▁prim	-6493
▁enpl	-6494
itala	-6495
▁epai	-6496
▁Iparraldeko	-6497
▁Band	-6498
▁gorri	-6499
aman	-6500
larik	-6501
▁eszen	-6502
▁konfiantza	-6503
▁eskuetan	-6504
▁suntsitu	-6505
▁Lur	-6506
▁eror	-6507
▁noski	-6508
iazko	-6509
▁zaizk	-6510
▁Osp	-6511
▁presoen	-6512
▁arrazoia	-6513
determin	-6514
▁Zaragoz	-6515
▁nabarmentzen	-6516
urrera	-6517
▁hal	-6518
▁lapur	-6519
age	-6520
▁titulua	-6521
▁kontrola	-6522
▁Victor	-6523
▁jokoan	-6524
▁seguru	-6525
▁murriztu	-6526
▁Hai	-6527
arioa	-6528
▁izanez	-6529
▁bestera	-6530
ulan	-6531
ainen	-6532
ple	-6533
ispan	-6534
▁Guru	-6535
▁harres	-6536
by	-6537
▁Honek	-6538
ezin	-6539
▁horiei	-6540
urrena	-6541
▁zeram	-6542
▁Agu	-6543
▁zirenak	-6544
ford	-6545
▁auzia	-6546
▁korron	-6547
▁indartsu	-6548
garritasuna	-6549
eth	-6550
ony	-6551
▁hizk	-6552
▁Iñigo	-6553
amilia	-6554
COO	-6555
▁Ign	-6556
atsu	-6557
eteko	-6558
▁Erruman	-6559
▁parlamen	-6560
▁bakea	-6561
▁kolp	-6562
▁prozed	-6563
▁Bada	-6564
▁antzeztu	-6565
▁zeude	-6566
▁ikastur	-6567
▁Amer	-6568
▁dihardu	-6569
▁jasotako	-6570
▁),	-6571
▁beranduago	-6572
▁indarrak	-6573
uti	-6574
asi	-6575
▁zet	-6576
▁ezagutza	-6577
▁Berri	-6578
▁Lapur	-6579
▁hona	-6580
▁aldia	-6581
▁frogatu	-6582
agile	-6583
atzat	-6584
▁Zu	-6585
▁Ozean	-6586
▁zak	-6587
▁bukaeran	-6588
▁linea	-6589
iturak	-6590
▁Cap	-6591
▁ateak	-6592
▁ETAk	-6593
▁arke	-6594
▁ekainean	-6595
ame	-6596
▁erabakitzeko	-6597
▁Kasu	-6598
tario	-6599
▁epait	-6600
▁hogei	-6601
▁argazkiak	-6602
▁gaitzetsi	-6603
ipen	-6604
▁ink	-6605
▁hari	-6606
▁haurrak	-6607
▁Shar	-6608
▁denboraldia	-6609
▁agindua	-6610
▁Pi	-6611
▁PPko	-6612
▁onenaren	-6613
▁oposizio	-6614
▁diot	-6615
▁proiektuak	-6616
▁tokian	-6617
til	-6618
▁erloj	-6619
▁kanta	-6620
▁ale	-6621
▁osatua	-6622
tazioak	-6623
▁zerg	-6624
turaren	-6625
▁derrig	-6626
▁urrian	-6627
atr	-6628
durako	-6629
Lo	-6630
▁kontsul	-6631
▁zatian	-6632
▁aire	-6633
RO	-6634
▁kant	-6635
▁edizio	-6636
▁protesta	-6637
▁proposatzen	-6638
penean	-6639
▁gustuko	-6640
▁okindegi	-6641
▁abenduan	-6642
▁bonb	-6643
▁jokoa	-6644
▁rock	-6645
ategia	-6646
sistema	-6647
▁bilatu	-6648
▁Armadak	-6649
▁utzita	-6650
adril	-6651
gazte	-6652
San	-6653
▁konbin	-6654
▁baitzuten	-6655
entea	-6656
tatutako	-6657
▁instala	-6658
▁kimikoa	-6659
▁Esan	-6660
▁Deb	-6661
▁anitz	-6662
▁Arras	-6663
urraren	-6664
▁garatzeko	-6665
▁iragar	-6666
▁beraren	-6667
▁Kontseiluak	-6668
asti	-6669
▁aben	-6670
▁gobernua	-6671
Le	-6672
urretan	-6673
isp	-6674
▁lerro	-6675
▁gaztelaniaz	-6676
▁diola	-6677
aris	-6678
ichth	-6679
▁kontzeptu	-6680
▁Ast	-6681
loc	-6682
ight	-6683
▁frantziar	-6684
▁espezi	-6685
itaren	-6686
illy	-6687
▁Hurbil	-6688
▁boterea	-6689
▁Rub	-6690
lovak	-6691
▁nahiago	-6692
▁Autonomia	-6693
oro	-6694
▁Agirre	-6695
▁Bu	-6696
▁Ingalat	-6697
▁txim	-6698
▁Alfon	-6699
▁omenez	-6700
▁fenomen	-6701
▁sortuko	-6702
teen	-6703
▁biek	-6704
▁Iaz	-6705
▁Irakas	-6706
chus	-6707
▁zul	-6708
▁polita	-6709
▁delarik	-6710
▁normaliz	-6711
▁giroa	-6712
▁harag	-6713
▁dit	-6714
▁istripu	-6715
artea	-6716
▁Neg	-6717
▁bertatik	-6718
▁mesede	-6719
ustin	-6720
▁Charles	-6721
garritasun	-6722
▁AB	-6723
▁naturala	-6724
▁Legebiltzarreko	-6725
▁aburuz	-6726
▁makina	-6727
▁Etxe	-6728
▁entre	-6729
tina	-6730
▁hipo	-6731
▁adierazteko	-6732
▁igeltseroak	-6733
▁Kutx	-6734
▁anai	-6735
▁jakina	-6736
▁objektu	-6737
▁herritarrak	-6738
▁Erren	-6739
▁geltokia	-6740
▁Max	-6741
aldun	-6742
ileg	-6743
▁Web	-6744
▁ents	-6745
▁!	-6746
jabe	-6747
opol	-6748
mann	-6749
▁estim	-6750
▁qu	-6751
▁zenez	-6752
▁mendil	-6753
ekien	-6754
▁Ikerketa	-6755
UZ	-6756
retain	-6757
▁jasaten	-6758
▁kontua	-6759
▁Arago	-6760
▁proposamenak	-6761
▁Egin	-6762
▁beltza	-6763
bera	-6764
▁park	-6765
▁bizka	-6766
▁baitziren	-6767
▁antzekoa	-6768
way	-6769
▁Uste	-6770
aletan	-6771
▁kontratua	-6772
▁hango	-6773
▁norber	-6774
▁Urrezko	-6775
agin	-6776
▁arra	-6777
▁mir	-6778
▁izenekoa	-6779
▁Banaketa	-6780
▁zirku	-6781
atzeaz	-6782
▁Indi	-6783
▁Ruiz	-6784
▁Aug	-6785
siste	-6786
epor	-6787
▁Kolonb	-6788
chi	-6789
▁konpainia	-6790
gain	-6791
▁japon	-6792
▁tokia	-6793
▁esateko	-6794
▁izateaz	-6795
igor	-6796
tekak	-6797
▁norabide	-6798
▁emakumea	-6799
▁gr	-6800
▁Ligan	-6801
▁bozkatu	-6802
elen	-6803
▁zidan	-6804
▁com	-6805
▁amaitzeko	-6806
▁dakar	-6807
eratzea	-6808
▁gogoeta	-6809
▁Hona	-6810
▁gido	-6811
ze	-6812
▁Gonzalez	-6813
artel	-6814
▁Pak	-6815
▁prentsa	-6816
▁Kh	-6817
▁historikoa	-6818
▁karg	-6819
kestra	-6820
▁izenez	-6821
▁atxik	-6822
ières	-6823
▁eskatzeko	-6824
▁Hauteskunde	-6825
▁azkeneko	-6826
▁arduratzen	-6827
yan	-6828
ebec	-6829
▁Ezk	-6830
▁Villa	-6831
▁antzok	-6832
▁Lehend	-6833
▁aipatutako	-6834
▁lantz	-6835
▁Izena	-6836
▁Olaiz	-6837
▁idazleak	-6838
▁exist	-6839
▁Nab	-6840
▁funtsezko	-6841
▁gordetzen	-6842
orta	-6843
uzka	-6844
Kategoria	-6845
▁Lege	-6846
▁dinast	-6847
ces	-6848
aketan	-6849
▁Lurralde	-6850
▁Jatorr	-6851
SO	-6852
▁irland	-6853
▁elkarretar	-6854
▁Vas	-6855
etikoa	-6856
▁martxoan	-6857
mus	-6858
▁Lam	-6859
bidean	-6860
▁VI	-6861
keten	-6862
ikoari	-6863
▁arras	-6864
▁Jack	-6865
▁zigortu	-6866
▁digute	-6867
▁txikiagoa	-6868
▁zan	-6869
karien	-6870
▁Fer	-6871
▁Ric	-6872
▁Futbol	-6873
ür	-6874
▁bandera	-6875
agir	-6876
▁Nazionala	-6877
▁azkarra	-6878
idun	-6879
▁udan	-6880
alizio	-6881
▁entzuten	-6882
▁Film	-6883
Bil	-6884
▁islam	-6885
▁hamarkada	-6886
▁aitor	-6887
▁hedatu	-6888
▁Mugimendu	-6889
erem	-6890
▁Tre	-6891
▁zuzentzen	-6892
▁arriskuan	-6893
▁super	-6894
▁etxebiz	-6895
▁jasotzeko	-6896
IO	-6897
▁itzal	-6898
▁aitzak	-6899
▁gis	-6900
▁Rad	-6901
abiziko	-6902
▁dioenez	-6903
inae	-6904
▁zahar	-6905
▁indartu	-6906
tarr	-6907
▁EEBB	-6908
oto	-6909
▁Txik	-6910
▁CCOO	-6911
ère	-6912
▁lel	-6913
▁Club	-6914
▁banan	-6915
▁ekintzak	-6916
▁aprob	-6917
▁nork	-6918
etarekin	-6919
▁aitzind	-6920
▁daitezen	-6921
gileen	-6922
▁alar	-6923
▁biltzeko	-6924
RE	-6925
kiak	-6926
▁Som	-6927
▁hauts	-6928
▁don	-6929
berr	-6930
▁gutxiagoko	-6931
▁banku	-6932
hartzea	-6933
▁Ibarretxe	-6934
▁Larre	-6935
▁Alemania	-6936
▁kilometroko	-6937
▁Herrialde	-6938
▁Nic	-6939
gimen	-6940
▁Garcia	-6941
eratua	-6942
fa	-6943
té	-6944
▁modua	-6945
iboa	-6946
▁historial	-6947
ietako	-6948
▁sekula	-6949
▁Sag	-6950
▁lehendakaria	-6951
Il	-6952
▁Ca	-6953
▁ekitaldian	-6954
iox	-6955
▁Zab	-6956
her	-6957
▁analis	-6958
entin	-6959
arioak	-6960
▁menpe	-6961
▁ikasleak	-6962
▁Pra	-6963
▁Buen	-6964
▁ziho	-6965
▁txand	-6966
▁irudikatzen	-6967
▁Antzinako	-6968
ette	-6969
▁areagotu	-6970
▁Batzar	-6971
▁Tren	-6972
▁gogora	-6973
▁Nekaz	-6974
▁Elkartea	-6975
Kon	-6976
▁Dok	-6977
mol	-6978
ling	-6979
ott	-6980
ive	-6981
ustua	-6982
▁Eibar	-6983
▁Donibane	-6984
ones	-6985
▁Kopako	-6986
▁Legebiltzarrean	-6987
▁fru	-6988
▁oinorde	-6989
iga	-6990
▁Arn	-6991
▁gehiengo	-6992
▁Gobernua	-6993
piz	-6994
▁ikastol	-6995
▁zehazten	-6996
▁Poloniako	-6997
Un	-6998
▁aurkeztutako	-6999
ikip	-7000
▁etxetik	-7001
▁Uzta	-7002
▁etorriko	-7003
▁eskura	-7004
okan	-7005
barr	-7006
rainer	-7007
▁irudik	-7008
▁finalerdi	-7009
▁Izen	-7010
itara	-7011
▁iriz	-7012
▁zalantzan	-7013
▁kutx	-7014
▁masa	-7015
udun	-7016
val	-7017
▁CD	-7018
▁Aitz	-7019
▁agur	-7020
▁aprobetx	-7021
tos	-7022
▁ebol	-7023
ting	-7024
▁Wh	-7025
▁jatorri	-7026
cal	-7027
my	-7028
▁batik	-7029
▁eraikina	-7030
▁eleberri	-7031
▁zitekeen	-7032
▁larriak	-7033
▁Fernandez	-7034
▁zinegotzi	-7035
▁nagusian	-7036
▁helburuak	-7037
arreman	-7038
▁egitasm	-7039
▁zaizkio	-7040
▁Ele	-7041
korrak	-7042
▁katedr	-7043
▁lagunak	-7044
▁urtarrilean	-7045
▁presentzia	-7046
▁lider	-7047
▁Zientzia	-7048
▁Hiriburua	-7049
▁bezero	-7050
▁erreforma	-7051
▁onenak	-7052
▁igarotzen	-7053
▁hab	-7054
▁hazten	-7055
isen	-7056
aritz	-7057
▁futbolari	-7058
chen	-7059
▁Horretaz	-7060
▁zurginak	-7061
▁daki	-7062
owa	-7063
▁CO	-7064
▁errespe	-7065
EE	-7066
bentz	-7067
igarr	-7068
▁estrop	-7069
▁legebiltzark	-7070
cha	-7071
iol	-7072
kaia	-7073
engoa	-7074
euskal	-7075
fik	-7076
tex	-7077
▁aurkitutako	-7078
▁Kontseilu	-7079
yren	-7080
▁izaki	-7081
▁berezko	-7082
degiak	-7083
▁jarraitzaile	-7084
IZ	-7085
▁EL	-7086
▁Blan	-7087
▁mutil	-7088
itzaileak	-7089
Uk	-7090
ipuzkoa	-7091
▁»	-7092
▁jantzi	-7093
▁poesia	-7094
▁sob	-7095
▁nagusien	-7096
trak	-7097
▁prezio	-7098
▁Zergatik	-7099
▁sex	-7100
▁geltoki	-7101
ainaren	-7102
▁ezk	-7103
▁txapelduna	-7104
▁mugitzen	-7105
▁Ost	-7106
▁irabazten	-7107
ctyl	-7108
▁ist	-7109
▁line	-7110
▁jos	-7111
▁botika	-7112
▁hutsa	-7113
▁ilus	-7114
UP	-7115
▁Ferr	-7116
▁Koldo	-7117
araziko	-7118
▁estreinatu	-7119
▁enpresaren	-7120
▁Getx	-7121
▁obrak	-7122
AZ	-7123
uzen	-7124
▁lekuan	-7125
▁babesten	-7126
idad	-7127
▁kontzertua	-7128
▁Nagusia	-7129
jel	-7130
▁erkide	-7131
▁ohitura	-7132
ack	-7133
gileak	-7134
▁maiatzean	-7135
▁finantza	-7136
▁hilketa	-7137
▁Eko	-7138
▁Arro	-7139
▁saltzen	-7140
▁titul	-7141
▁Maroko	-7142
kaitz	-7143
▁aterako	-7144
▁Esta	-7145
▁Igan	-7146
eretan	-7147
▁Labor	-7148
▁ulertzeko	-7149
▁Eug	-7150
▁segundo	-7151
▁Á	-7152
▁Ivan	-7153
mut	-7154
uil	-7155
atera	-7156
pia	-7157
▁azpif	-7158
▁inpor	-7159
▁zaldi	-7160
▁hiruko	-7161
▁aniz	-7162
ibarren	-7163
▁uztailean	-7164
itakoa	-7165
▁gauzatu	-7166
▁ministroa	-7167
▁zatik	-7168
▁kartzela	-7169
▁aul	-7170
▁Ander	-7171
▁sustatzeko	-7172
eter	-7173
▁gud	-7174
ars	-7175
▁Lagun	-7176
▁txak	-7177
▁luzatu	-7178
▁ate	-7179
▁Louis	-7180
▁jarraipena	-7181
▁Mak	-7182
andia	-7183
taera	-7184
▁frantsesez	-7185
▁AR	-7186
▁deritzo	-7187
▁bultzatzen	-7188
▁testuinguru	-7189
plan	-7190
▁unean	-7191
▁Jun	-7192
▁dizu	-7193
▁soldata	-7194
dera	-7195
▁Christ	-7196
▁itzuliko	-7197
atzekoa	-7198
▁Gro	-7199
arretik	-7200
▁berrera	-7201
▁dist	-7202
▁Serb	-7203
usketa	-7204
▁Lehiak	-7205
▁hamabi	-7206
Zer	-7207
▁aholkul	-7208
▁ehunka	-7209
▁galdek	-7210
▁zeukan	-7211
▁indartsua	-7212
New	-7213
▁agir	-7214
▁pribatu	-7215
▁erabilitako	-7216
▁Ertzaintzak	-7217
eskola	-7218
▁bola	-7219
▁zizkio	-7220
idek	-7221
▁irakasleak	-7222
▁Carol	-7223
▁herrialdeko	-7224
▁prote	-7225
▁ibiltzen	-7226
▁orokorrean	-7227
▁Mic	-7228
▁mezu	-7229
▁laguntzarekin	-7230
▁gener	-7231
▁barru	-7232
▁bosgarren	-7233
▁erabiltzaile	-7234
www	-7235
▁atseden	-7236
▁zabaltzeko	-7237
alau	-7238
jar	-7239
atari	-7240
▁nituen	-7241
orezko	-7242
▁austr	-7243
uzio	-7244
▁Ann	-7245
▁kasua	-7246
▁emakumezko	-7247
itarren	-7248
▁udalerr	-7249
zan	-7250
▁gertaera	-7251
ware	-7252
▁kre	-7253
leek	-7254
atearen	-7255
▁eramango	-7256
▁Geroago	-7257
▁astronom	-7258
ides	-7259
▁distantzi	-7260
▁partikul	-7261
").	-7262
▁Euskaltzain	-7263
▁naz	-7264
etakoak	-7265
▁gustatzen	-7266
▁tiro	-7267
oba	-7268
▁Araban	-7269
▁bileran	-7270
▁Aldi	-7271
▁altuera	-7272
▁Let	-7273
ilia	-7274
▁esn	-7275
▁askatasun	-7276
zi	-7277
▁ordua	-7278
▁zaharren	-7279
▁plataform	-7280
ré	-7281
▁Red	-7282
▁Iturr	-7283
orrek	-7284
▁trenbide	-7285
▁ikuspuntu	-7286
wa	-7287
▁Armada	-7288
▁egitasmo	-7289
▁Daniel	-7290
▁lehenik	-7291
tzeagatik	-7292
▁Sav	-7293
arkako	-7294
▁Sir	-7295
eau	-7296
turen	-7297
▁akzio	-7298
▁karbon	-7299
uneko	-7300
ezie	-7301
▁traf	-7302
▁Kris	-7303
bai	-7304
ezia	-7305
▁ikasleek	-7306
▁eza	-7307
▁Gener	-7308
▁alderdiko	-7309
▁goiko	-7310
▁Behatok	-7311
▁Alk	-7312
▁Ven	-7313
▁lisk	-7314
▁fabor	-7315
▁Suitzako	-7316
▁dezakezu	-7317
▁zerikusia	-7318
▁ra	-7319
▁Danim	-7320
▁zeharkatu	-7321
▁Ibarretxek	-7322
▁fisiko	-7323
▁ekarpen	-7324
▁Lat	-7325
▁Sainte	-7326
tokiak	-7327
▁aileg	-7328
▁bortx	-7329
▁gaztelua	-7330
▁Taldea	-7331
▁profesionala	-7332
▁Soc	-7333
▁zaitu	-7334
▁amaitzen	-7335
▁doh	-7336
▁dezagun	-7337
▁duk	-7338
▁Coun	-7339
ketetan	-7340
▁argitaratutako	-7341
▁politikoaren	-7342
▁fik	-7343
guratu	-7344
”,	-7345
▁harro	-7346
▁jakiteko	-7347
Ber	-7348
uzak	-7349
ment	-7350
▁ditz	-7351
▁mendia	-7352
▁ikustea	-7353
▁zutenak	-7354
arak	-7355
▁sistem	-7356
▁esandako	-7357
▁gipuzko	-7358
▁bermatzeko	-7359
▁gerrill	-7360
▁denik	-7361
▁zerga	-7362
ello	-7363
▁Maz	-7364
▁prestakuntza	-7365
▁gaitasun	-7366
▁dipl	-7367
▁manifestazioa	-7368
▁Et	-7369
doak	-7370
▁amaituko	-7371
▁Cer	-7372
▁estekak	-7373
▁Gerraren	-7374
▁erabakiko	-7375
agako	-7376
▁Iraultz	-7377
baz	-7378
▁Norv	-7379
egitura	-7380
▁Tro	-7381
▁lanen	-7382
▁automat	-7383
▁Natur	-7384
▁Nov	-7385
▁fres	-7386
▁tin	-7387
▁hiriburuan	-7388
▁Ore	-7389
▁atxilok	-7390
▁Sak	-7391
▁Marc	-7392
ahiru	-7393
atorren	-7394
▁#	-7395
▁konderri	-7396
▁bek	-7397
▁arraz	-7398
okoak	-7399
▁hurrenez	-7400
▁Argentinako	-7401
gorr	-7402
▁Akitan	-7403
▁hurbildu	-7404
▁poema	-7405
▁deitua	-7406
acio	-7407
atxo	-7408
gehiago	-7409
garrien	-7410
▁bail	-7411
▁norbanakoentzat	-7412
ison	-7413
▁erromatar	-7414
▁instr	-7415
▁jakit	-7416
▁maximoa	-7417
▁elkarteko	-7418
▁sinpl	-7419
▁ehiz	-7420
▁txostena	-7421
▁Rodriguez	-7422
▁ordezkaritza	-7423
▁judu	-7424
itude	-7425
▁azaroan	-7426
▁erregea	-7427
▁itzultz	-7428
izabal	-7429
▁zituena	-7430
seud	-7431
▁makin	-7432
▁aktoreek	-7433
▁emakumeek	-7434
azal	-7435
ometr	-7436
▁Londresko	-7437
▁Egunkari	-7438
▁elkarlanean	-7439
▁eskainitako	-7440
ield	-7441
▁inauguratu	-7442
▁Tele	-7443
▁dizki	-7444
▁Emakume	-7445
▁helmug	-7446
iekin	-7447
▁urdin	-7448
▁dezakeen	-7449
Gipuzkoa	-7450
uka	-7451
entzian	-7452
▁Win	-7453
ibide	-7454
tiketa	-7455
▁izateagatik	-7456
▁Dipu	-7457
▁nondik	-7458
▁hamarka	-7459
▁onartuko	-7460
akona	-7461
▁bloke	-7462
▁Estatuko	-7463
▁ostiralean	-7464
▁Georg	-7465
▁baitago	-7466
▁gan	-7467
EZ	-7468
▁kanpoan	-7469
▁ekoizten	-7470
▁dentsitatea	-7471
AM	-7472
▁saioak	-7473
▁Polizia	-7474
▁joatea	-7475
▁aretoan	-7476
▁hotel	-7477
▁ahos	-7478
▁emoz	-7479
▁Europar	-7480
▁intelektu	-7481
garrena	-7482
▁kulturaren	-7483
▁ER	-7484
eratzeko	-7485
▁antzera	-7486
▁emaztea	-7487
▁aztertuko	-7488
Fr	-7489
▁garela	-7490
▁ohartu	-7491
▁mugimendua	-7492
▁ditzakete	-7493
▁Fiskal	-7494
▁eskatuko	-7495
▁>	-7496
apela	-7497
▁tro	-7498
atia	-7499
leko	-7500
▁Karr	-7501
▁berde	-7502
ibal	-7503
▁irakurtzen	-7504
▁kolpe	-7505
▁ohiak	-7506
▁margolari	-7507
zor	-7508
ordea	-7509
▁Oiar	-7510
▁behartu	-7511
▁klase	-7512
▁Garapen	-7513
▁iturginak	-7514
▁militarra	-7515
▁bizitzan	-7516
▁politikoen	-7517
▁Tab	-7518
▁bozeramaile	-7519
▁Salv	-7520
▁Hortaz	-7521
▁atez	-7522
▁amerikar	-7523
▁laguntzaile	-7524
cer	-7525
ric	-7526
▁genuke	-7527
▁Um	-7528
▁Buru	-7529
▁osatuta	-7530
▁Alemanian	-7531
cher	-7532
▁Abertzal	-7533
▁kentzeko	-7534
▁presidentearen	-7535
bro	-7536
▁UN	-7537
aip	-7538
▁mikro	-7539
▁aurkari	-7540
▁zehazki	-7541
▁bereganatu	-7542
▁gura	-7543
▁arrain	-7544
▁psikolog	-7545
▁Kim	-7546
▁azpiko	-7547
▁istorioa	-7548
▁erb	-7549
▁Cre	-7550
iente	-7551
▁espek	-7552
ume	-7553
▁santu	-7554
▁sartuko	-7555
▁kristalak	-7556
▁bizitzaren	-7557
iden	-7558
▁gertatuko	-7559
▁afro	-7560
IL	-7561
▁tratu	-7562
▁Karl	-7563
▁Yorkeko	-7564
.)	-7565
▁Kanp	-7566
▁geure	-7567
▁saiakera	-7568
▁erresistentzia	-7569
▁konpondu	-7570
▁Azk	-7571
▁UGT	-7572
azten	-7573
▁adiskide	-7574
▁gaiz	-7575
katuta	-7576
▁esanez	-7577
yo	-7578
▁Jainko	-7579
▁izendapen	-7580
arko	-7581
▁horm	-7582
▁egunez	-7583
▁oinarria	-7584
▁azpifamilia	-7585
▁kantonamendua	-7586
▁Korr	-7587
▁Kam	-7588
▁Une	-7589
tibo	-7590
▁Niko	-7591
etxean	-7592
▁Du	-7593
▁zuria	-7594
▁Frantziak	-7595
▁Arra	-7596
▁adar	-7597
▁desegin	-7598
▁interesa	-7599
▁poeta	-7600
▁nagusietako	-7601
▁Epa	-7602
▁pelik	-7603
▁ezkerreko	-7604
▁ea	-7605
bora	-7606
▁data	-7607
Eur	-7608
▁jazar	-7609
▁milio	-7610
▁sasoi	-7611
▁Pierre	-7612
▁zuhaitz	-7613
ituan	-7614
▁garest	-7615
▁Oraindik	-7616
▁bakter	-7617
▁inongo	-7618
▁zutelako	-7619
akuntza	-7620
atzeagatik	-7621
▁kilometrora	-7622
▁dagozk	-7623
▁berber	-7624
▁Martinez	-7625
▁epaiketa	-7626
▁helegitea	-7627
ome	-7628
ye	-7629
▁horrenbeste	-7630
bola	-7631
▁Kontz	-7632
▁All	-7633
aguna	-7634
Mon	-7635
cio	-7636
▁txuk	-7637
▁Este	-7638
▁Trans	-7639
▁Administrazio	-7640
aut	-7641
▁Pu	-7642
▁arrak	-7643
▁Perez	-7644
▁Baskon	-7645
▁kalitatea	-7646
.,	-7647
▁alkateak	-7648
▁erregearen	-7649
▁gertatutako	-7650
tere	-7651
undi	-7652
▁zehatza	-7653
ão	-7654
▁Sobietar	-7655
bre	-7656
▁Jorge	-7657
▁ahalmena	-7658
Alpeak	-7659
▁gizartea	-7660
▁sortuz	-7661
▁auzoko	-7662
ulen	-7663
med	-7664
▁Ain	-7665
▁parrok	-7666
▁kontatu	-7667
▁prozesuan	-7668
▁sakaban	-7669
▁lehenbiziko	-7670
adanik	-7671
▁zabalik	-7672
yko	-7673
ilan	-7674
akete	-7675
▁zentral	-7676
▁koro	-7677
▁Honen	-7678
otako	-7679
▁gogorrak	-7680
▁momentu	-7681
▁otsailean	-7682
▁agiri	-7683
▁jokalaria	-7684
ward	-7685
▁fam	-7686
upena	-7687
iform	-7688
▁Super	-7689
▁atxiki	-7690
▁finalean	-7691
▁arduradunak	-7692
dae	-7693
▁Zi	-7694
▁Iraken	-7695
▁frank	-7696
▁errepar	-7697
▁armak	-7698
▁biktim	-7699
▁bulego	-7700
aziorako	-7701
▁Hez	-7702
egiko	-7703
▁antza	-7704
▁comen	-7705
▁hitzarmena	-7706
tez	-7707
▁diegu	-7708
▁konbentz	-7709
▁sakona	-7710
▁Ken	-7711
▁betiere	-7712
▁Fak	-7713
▁Magn	-7714
▁urtetan	-7715
▁bultzatzeko	-7716
▁ped	-7717
▁Maur	-7718
kuntzaren	-7719
▁set	-7720
▁modura	-7721
▁ahalbidetzen	-7722
▁diseinatu	-7723
▁Emakumeen	-7724
▁Azar	-7725
▁sorrera	-7726
▁sindikatuek	-7727
idi	-7728
▁Sad	-7729
▁Phil	-7730
▁lore	-7731
▁iristeko	-7732
▁txapelketan	-7733
ble	-7734
▁Tex	-7735
▁edon	-7736
inp	-7737
eneko	-7738
▁produktuak	-7739
▁Cro	-7740
▁bonbard	-7741
▁zeudela	-7742
▁udalerriko	-7743
eza	-7744
Gure	-7745
▁Sindik	-7746
▁Kok	-7747
▁eusten	-7748
icado	-7749
▁zapal	-7750
uev	-7751
▁porrot	-7752
▁Op	-7753
▁baikor	-7754
▁duzun	-7755
▁EI	-7756
ologo	-7757
▁hitzaldi	-7758
esi	-7759
alda	-7760
ili	-7761
ustiz	-7762
▁azaltzeko	-7763
▁Abendu	-7764
itikoa	-7765
▁ekimena	-7766
▁Lizarr	-7767
▁azkena	-7768
▁distantziara	-7769
dul	-7770
▁Form	-7771
▁topatu	-7772
▁esped	-7773
▁iritsiko	-7774
▁proiektuaren	-7775
txoa	-7776
laniaz	-7777
enetakoa	-7778
▁Ingurumen	-7779
▁buelta	-7780
▁Gan	-7781
▁Og	-7782
Kanp	-7783
▁atzeman	-7784
artek	-7785
▁mina	-7786
▁gogoa	-7787
▁apirilean	-7788
▁Katal	-7789
▁hezkuntz	-7790
izena	-7791
▁belaunaldi	-7792
▁gaix	-7793
▁kub	-7794
▁osoaren	-7795
▁penints	-7796
Am	-7797
▁lots	-7798
▁Pakistan	-7799
▁daukat	-7800
▁lehian	-7801
▁post	-7802
▁horixe	-7803
▁dutenek	-7804
▁eratzen	-7805
▁bizitzeko	-7806
▁papera	-7807
bis	-7808
koan	-7809
▁errenta	-7810
▁agentzia	-7811
▁zuzendaritza	-7812
▁nagusiaren	-7813
▁bizikl	-7814
▁jaun	-7815
▁sustatu	-7816
ekialdean	-7817
▁dokumentu	-7818
▁angel	-7819
▁Italia	-7820
▁gazteek	-7821
▁koalizio	-7822
▁Ibilbidea	-7823
▁margolariak	-7824
▁errefux	-7825
▁eraikuntz	-7826
▁Tam	-7827
▁medio	-7828
ituriko	-7829
▁bazkide	-7830
iñ	-7831
▁botoa	-7832
line	-7833
itateak	-7834
ionatu	-7835
▁Hawai	-7836
tia	-7837
▁albo	-7838
▁parean	-7839
▁solas	-7840
▁aipamena	-7841
▁pixkanaka	-7842
▁erregeak	-7843
▁ikasleen	-7844
▁aurreik	-7845
▁Fl	-7846
eteor	-7847
itarrak	-7848
▁guztian	-7849
▁sendoa	-7850
▁zirkul	-7851
▁telefono	-7852
▁Gobernuari	-7853
▁jendearen	-7854
ves	-7855
▁Green	-7856
▁arituko	-7857
▁plast	-7858
▁Zir	-7859
Etxean	-7860
▁xehetasun	-7861
▁Auk	-7862
▁tran	-7863
▁gorria	-7864
▁Alabaina	-7865
▁Angeles	-7866
▁emanaldi	-7867
▁ordena	-7868
▁bizitzera	-7869
ef	-7870
dela	-7871
wood	-7872
▁gorako	-7873
▁Hers	-7874
mas	-7875
▁Sarr	-7876
dam	-7877
▁nazionala	-7878
▁Haien	-7879
▁hausnar	-7880
▁Eskubideen	-7881
▁jatetxeak	-7882
▁horretara	-7883
landi	-7884
▁gutun	-7885
▁partidu	-7886
entr	-7887
prozes	-7888
▁aktorea	-7889
▁barrena	-7890
▁Hem	-7891
▁Bitarte	-7892
iei	-7893
▁debekatu	-7894
▁salb	-7895
ivers	-7896
erara	-7897
▁Araf	-7898
hor	-7899
▁politikaria	-7900
▁pilotal	-7901
arrekoa	-7902
▁onartutako	-7903
▁Sah	-7904
▁zaude	-7905
▁bideak	-7906
▁filmean	-7907
▁militan	-7908
▁tron	-7909
▁bilkur	-7910
▁pieza	-7911
▁Fon	-7912
▁lehendabiziko	-7913
▁zulo	-7914
▁pezeta	-7915
▁exij	-7916
▁tasa	-7917
▁negozio	-7918
▁Defentsa	-7919
▁lez	-7920
▁lurrak	-7921
▁daukagu	-7922
▁EAk	-7923
itt	-7924
▁PAN	-7925
▁eskolan	-7926
▁Palestinako	-7927
▁NA	-7928
▁Antol	-7929
ekoan	-7930
▁hedatzen	-7931
ugu	-7932
▁sukald	-7933
▁jokatzea	-7934
▁laburra	-7935
Martin	-7936
▁barre	-7937
▁ustel	-7938
▁Thomas	-7939
▁ideiak	-7940
egiaren	-7941
▁inpos	-7942
▁bertara	-7943
tuna	-7944
▁Argi	-7945
dactyl	-7946
eginak	-7947
▁Peter	-7948
▁entrenatzaileak	-7949
DF	-7950
tzarako	-7951
▁Hegoaldeko	-7952
▁ingelesez	-7953
TI	-7954
▁ekonomikoak	-7955
▁Tour	-7956
▁ugal	-7957
▁Goñ	-7958
▁eusteko	-7959
▁presoak	-7960
▁saihesteko	-7961
▁beharrik	-7962
▁geratuko	-7963
▁asteroidearen	-7964
azif	-7965
On	-7966
▁hauxe	-7967
▁Ares	-7968
▁Ps	-7969
▁esperien	-7970
▁TV	-7971
▁nagusiki	-7972
▁astelehenean	-7973
▁Beti	-7974
▁ints	-7975
▁giltz	-7976
▁jazo	-7977
▁hirur	-7978
▁filosofia	-7979
▁tol	-7980
▁israel	-7981
intzan	-7982
▁sindikatuak	-7983
hau	-7984
Altern	-7985
▁islatzen	-7986
▁duenak	-7987
▁inprim	-7988
▁abokatu	-7989
pon	-7990
▁hamabost	-7991
PP	-7992
▁gizona	-7993
▁ertzean	-7994
▁zuzeneko	-7995
▁@	-7996
▁identifik	-7997
▁Cab	-7998
hel	-7999
text	-8000
itsua	-8001
▁Abuz	-8002
▁Asier	-8003
▁nafar	-8004
▁Cast	-8005
▁daukate	-8006
▁bideratu	-8007
▁zerrendan	-8008
ierra	-8009
erantzean	-8010
dena	-8011
▁aitaren	-8012
▁ahotsa	-8013
▁horma	-8014
▁estua	-8015
▁Aurk	-8016
▁errepik	-8017
▁ekintzaile	-8018
▁Igor	-8019
iarako	-8020
▁abuztuan	-8021
▁Fab	-8022
▁Horiek	-8023
ikara	-8024
case	-8025
▁Erkidegoko	-8026
▁Aldundiak	-8027
▁Ozeano	-8028
▁eskolak	-8029
▁erakusteko	-8030
▁Ci	-8031
▁kaleko	-8032
▁publiz	-8033
▁ezartzeko	-8034
▁Tal	-8035
▁Industria	-8036
▁Islam	-8037
▁Erakundeak	-8038
▁hilabeteetan	-8039
▁Guk	-8040
▁sul	-8041
▁mineralaren	-8042
▁Anim	-8043
bada	-8044
▁eku	-8045
▁elkartea	-8046
estea	-8047
▁kaus	-8048
separ	-8049
▁Prozes	-8050
▁arauak	-8051
▁normal	-8052
▁irabaztea	-8053
iratu	-8054
▁itzultzeko	-8055
▁hautes	-8056
▁Mul	-8057
abeak	-8058
▁heltzen	-8059
ega	-8060
▁Apir	-8061
▁doaz	-8062
▁harira	-8063
urus	-8064
uriak	-8065
▁udab	-8066
▁areto	-8067
▁Joxe	-8068
▁pisu	-8069
itzi	-8070
▁Lak	-8071
▁Realak	-8072
▁emaitz	-8073
chez	-8074
▁erabateko	-8075
aine	-8076
Kanpoan	-8077
▁Wor	-8078
▁oreka	-8079
▁hitzor	-8080
▁Eslovak	-8081
▁betebeh	-8082
▁irizpide	-8083
▁alemaniar	-8084
▁Log	-8085
▁Prin	-8086
▁Uharte	-8087
▁Zapater	-8088
▁bakarrak	-8089
asteiz	-8090
▁pentsamendu	-8091
bot	-8092
ike	-8093
▁ax	-8094
uria	-8095
▁nahita	-8096
izon	-8097
kapen	-8098
▁britainiar	-8099
▁biolog	-8100
uro	-8101
▁egitasmoa	-8102
▁Dol	-8103
tarrak	-8104
enean	-8105
▁Bio	-8106
▁justu	-8107
tiv	-8108
▁Ere	-8109
▁Cel	-8110
▁XIII	-8111
▁harekin	-8112
▁Azpe	-8113
▁Oteg	-8114
▁dituelako	-8115
EM	-8116
urrenik	-8117
▁hizpide	-8118
▁Asp	-8119
▁Bartzelonan	-8120
ropos	-8121
▁Alon	-8122
▁beheko	-8123
ulazioa	-8124
▁gerora	-8125
▁Berak	-8126
location	-8127
iakoa	-8128
▁test	-8129
▁ezagut	-8130
▁elkartasuna	-8131
▁Turk	-8132
▁agintal	-8133
▁gainditzeko	-8134
enek	-8135
iograf	-8136
▁bertze	-8137
ologikoa	-8138
▁auzipe	-8139
via	-8140
▁eskuratzeko	-8141
▁Internet	-8142
▁Publicado	-8143
erian	-8144
▁ekid	-8145
itzailea	-8146
▁hizkuntzaren	-8147
arc	-8148
goslav	-8149
▁jauregia	-8150
▁IK	-8151
▁festa	-8152
▁erretiratu	-8153
▁Okzitania	-8154
▁birus	-8155
▁alderantz	-8156
▁kaf	-8157
context	-8158
▁gizaki	-8159
▁tables	-8160
▁Atzerri	-8161
Alternate	-8162
=:	-8163
agan	-8164
▁kideen	-8165
▁buruari	-8166
▁epaimah	-8167
tip	-8168
▁Fis	-8169
▁Rio	-8170
separator	-8171
▁tablesort	-8172
locationcontext	-8173
▁berdina	-8174
▁kontuak	-8175
▁izateak	-8176
▁Monte	-8177
▁Nazionalak	-8178
▁trib	-8179
▁egitarau	-8180
EEk	-8181
▁Orokor	-8182
▁Gog	-8183
atean	-8184
fe	-8185
rich	-8186
▁pers	-8187
▁bisit	-8188
▁hemendik	-8189
sta	-8190
▁Tau	-8191
▁jaten	-8192
▁Elkarteko	-8193
ll	-8194
abi	-8195
▁Hasi	-8196
▁Konstitu	-8197
▁erritmo	-8198
▁zalantzarik	-8199
war	-8200
▁zortz	-8201
▁bildutako	-8202
▁Lez	-8203
▁enbax	-8204
esc	-8205
▁monaster	-8206
▁arduradunek	-8207
▁eskultura	-8208
▁eraginkorra	-8209
itale	-8210
igarriak	-8211
zak	-8212
tena	-8213
▁Pazif	-8214
tatuta	-8215
▁begiratu	-8216
▁esz	-8217
▁Hersch	-8218
▁Datorren	-8219
▁sistemak	-8220
▁komis	-8221
atzailearen	-8222
▁Ray	-8223
▁th	-8224
ovic	-8225
ères	-8226
▁geograf	-8227
▁lurraldea	-8228
▁horretaz	-8229
▁gehienbat	-8230
▁aurrekontu	-8231
▁Auv	-8232
urrik	-8233
▁Denbora	-8234
▁herrien	-8235
jak	-8236
tima	-8237
▁estatua	-8238
jin	-8239
▁dagoelako	-8240
▁dokumental	-8241
tion	-8242
▁arrazoiak	-8243
▁urak	-8244
▁uhartea	-8245
▁palestinar	-8246
imin	-8247
ernia	-8248
turako	-8249
tzezko	-8250
▁nahia	-8251
tents	-8252
▁heriotzaren	-8253
erto	-8254
▁Oih	-8255
▁lanari	-8256
istu	-8257
▁PPren	-8258
Bko	-8259
▁Politika	-8260
▁badirudi	-8261
aud	-8262
ichthys	-8263
▁trainer	-8264
▁sentimendu	-8265
zteko	-8266
▁txoko	-8267
▁baliabideak	-8268
▁artif	-8269
the	-8270
▁soft	-8271
▁handiagoak	-8272
eratik	-8273
▁Donosti	-8274
▁XII	-8275
elanda	-8276
▁seinale	-8277
▁aplikazio	-8278
ski	-8279
▁dakigu	-8280
osto	-8281
▁Nagusiak	-8282
▁Bukatzeko	-8283
▁atalean	-8284
mu	-8285
aurre	-8286
▁espor	-8287
▁dauzka	-8288
▁urteen	-8289
▁fisikoak	-8290
ée	-8291
▁fitxatu	-8292
;.	-8293
ardi	-8294
iagor	-8295
ylvan	-8296
▁Gabri	-8297
▁izugarri	-8298
edra	-8299
hartze	-8300
▁herritarrei	-8301
▁altua	-8302
▁PSN	-8303
▁Egiptoko	-8304
cho	-8305
igan	-8306
▁txanda	-8307
▁diam	-8308
▁zazp	-8309
▁institu	-8310
▁abiatuko	-8311
▁argitaratzen	-8312
▁Zure	-8313
▁etorkizunean	-8314
▁autodetermin	-8315
karg	-8316
▁iraunkor	-8317
▁mendilerr	-8318
▁Vil	-8319
inger	-8320
▁urterako	-8321
▁publikoaren	-8322
▁Hy	-8323
▁taldeari	-8324
▁xedea	-8325
urrezko	-8326
EEko	-8327
▁berari	-8328
▁aldizkarian	-8329
▁UEF	-8330
▁kilo	-8331
▁trin	-8332
▁oraingoz	-8333
Donost	-8334
tarios	-8335
azabal	-8336
▁Alj	-8337
▁Lurraren	-8338
▁hero	-8339
▁Leku	-8340
▁Informazio	-8341
▁Gorka	-8342
▁lurper	-8343
hi	-8344
▁bizilagun	-8345
▁Fal	-8346
▁esperimen	-8347
▁egilea	-8348
▁inspir	-8349
▁jokalariek	-8350
▁Astur	-8351
▁ziklo	-8352
▁Iragan	-8353
▁parke	-8354
▁norgehiago	-8355
▁afroamerik	-8356
▁teknik	-8357
oin	-8358
ingen	-8359
Rod	-8360
▁atom	-8361
▁atarian	-8362
▁urratsak	-8363
▁Pon	-8364
▁kanpora	-8365
▁esatea	-8366
sak	-8367
▁uda	-8368
ade	-8369
nah	-8370
▁txan	-8371
▁beroa	-8372
tariak	-8373
ologian	-8374
▁arloko	-8375
▁Ema	-8376
▁Txapelketako	-8377
aparta	-8378
mendebaldean	-8379
mina	-8380
▁Eduardo	-8381
▁ikertzen	-8382
▁txartela	-8383
▁gizarteak	-8384
isto	-8385
kura	-8386
▁ekintz	-8387
▁irr	-8388
torearen	-8389
▁izugarria	-8390
▁gonbidatu	-8391
▁gaueko	-8392
vel	-8393
▁Goiko	-8394
sous	-8395
▁hondar	-8396
ularra	-8397
▁Mediterran	-8398
sonek	-8399
▁nera	-8400
▁froga	-8401
▁Herbehere	-8402
▁kanporatu	-8403
ilio	-8404
▁Bertako	-8405
▁erantzuteko	-8406
▁pu	-8407
▁http	-8408
▁Asiako	-8409
fin	-8410
▁ziz	-8411
▁orek	-8412
DA	-8413
▁Bay	-8414
▁Sem	-8415
▁justi	-8416
ispano	-8417
▁hispan	-8418
▁aldarrikatzen	-8419
bin	-8420
erarik	-8421
gob	-8422
kinak	-8423
▁sartuta	-8424
▁by	-8425
▁txapela	-8426
apartamentu	-8427
▁bonba	-8428
▁jaioa	-8429
alditik	-8430
▁abiatuta	-8431
▁pa	-8432
▁Bartzelona	-8433
▁Mailako	-8434
▁menpeko	-8435
bere	-8436
▁itsason	-8437
▁zeraman	-8438
▁diametro	-8439
▁Desk	-8440
▁Unai	-8441
▁Erromatar	-8442
▁zuh	-8443
▁Alonso	-8444
▁Erromako	-8445
▁aho	-8446
▁barneko	-8447
▁Hun	-8448
▁artekoa	-8449
▁Independ	-8450
▁lanpostu	-8451
▁existitzen	-8452
▁Dra	-8453
▁alboan	-8454
▁diagn	-8455
▁Ibarretxeren	-8456
▁Of	-8457
▁Non	-8458
enns	-8459
▁mugitu	-8460
▁ilustr	-8461
▁Demokrat	-8462
▁Britainia	-8463
▁arkitektura	-8464
rad	-8465
behera	-8466
obia	-8467
▁sim	-8468
▁jarraitzea	-8469
▁ahalmen	-8470
▁ingurune	-8471
▁Horien	-8472
▁Kn	-8473
▁bira	-8474
▁artea	-8475
▁ipu	-8476
Orain	-8477
jan	-8478
▁Dar	-8479
▁Imaz	-8480
▁Unibertsitatea	-8481
▁enpresen	-8482
▁Herschelek	-8483
▁Borgo	-8484
▁Italian	-8485
▁Aroan	-8486
▁arkitekto	-8487
▁espetxean	-8488
zabal	-8489
▁satel	-8490
▁kanporaketa	-8491
▁segurtasuna	-8492
puntu	-8493
▁adimen	-8494
▁garaitu	-8495
▁Espainiak	-8496
▁alderdiek	-8497
▁laurden	-8498
▁Sanz	-8499
▁ebalu	-8500
▁Iruñea	-8501
▁XXI	-8502
▁sufr	-8503
▁comentarios	-8504
▁entrenamendu	-8505
▁lanik	-8506
▁Arrats	-8507
▁asmorik	-8508
▁testua	-8509
ennsylvan	-8510
▁eskualdea	-8511
▁konderriko	-8512
▁maisu	-8513
andi	-8514
▁Pic	-8515
▁Propos	-8516
▁litekeena	-8517
▁konpainiak	-8518
▁atmos	-8519
rus	-8520
▁hipotes	-8521
▁zaharrak	-8522
▁bestearen	-8523
▁irl	-8524
▁batzuei	-8525
▁goraip	-8526
▁dagoenean	-8527
—.	-8528
dis	-8529
igintza	-8530
▁Erabak	-8531
▁zertan	-8532
bidearen	-8533
▁zeregin	-8534
▁Julio	-8535
▁Herrira	-8536
▁Mod	-8537
raelek	-8538
▁ekimenak	-8539
Bizkaia	-8540
▁Ekonom	-8541
▁esanda	-8542
tatuak	-8543
▁jadanik	-8544
▁datza	-8545
▁gerran	-8546
itzapen	-8547
▁Garaiko	-8548
▁Gehien	-8549
▁alorrean	-8550
▁Taldeak	-8551
▁asteburuan	-8552
afrik	-8553
▁Hiria	-8554
▁hilabeteko	-8555
▁IRA	-8556
▁term	-8557
▁Depor	-8558
icus	-8559
abideak	-8560
▁kontakizun	-8561
ilea	-8562
▁zizkioten	-8563
ioke	-8564
▁erregimen	-8565
ularen	-8566
▁sorta	-8567
▁sentitu	-8568
▁apustua	-8569
▁egoeraren	-8570
Ba	-8571
eron	-8572
▁oker	-8573
azia	-8574
fo	-8575
▁minb	-8576
▁Bou	-8577
▁pertsonala	-8578
▁erabakitzen	-8579
esan	-8580
▁ezingo	-8581
▁egileak	-8582
▁heinean	-8583
▁ospetsua	-8584
▁kalea	-8585
▁hiriak	-8586
▁balu	-8587
▁hara	-8588
▁idazlearen	-8589
▁sistemaren	-8590
▁paral	-8591
▁prestatzeko	-8592
▁atea	-8593
▁ostera	-8594
▁antolatzeko	-8595
uze	-8596
▁lid	-8597
tziala	-8598
▁antolatzaileek	-8599
▁mendeetan	-8600
▁IN	-8601
retua	-8602
▁Miren	-8603
etod	-8604
▁prin	-8605
▁aurreikusten	-8606
▁planeta	-8607
▁ospea	-8608
ikoarekin	-8609
aleku	-8610
▁latino	-8611
▁demokrazia	-8612
otza	-8613
▁Lis	-8614
▁sekulako	-8615
▁beharbada	-8616
▁Sau	-8617
▁nion	-8618
iran	-8619
▁Sof	-8620
▁West	-8621
▁marrazk	-8622
entzun	-8623
▁Ukrainako	-8624
▁Ignacio	-8625
▁Londresen	-8626
Pro	-8627
▁fronto	-8628
▁Armadako	-8629
▁lagunduko	-8630
▁matematik	-8631
onim	-8632
▁erantsi	-8633
▁petrolio	-8634
▁beteta	-8635
▁Estatuaren	-8636
▁osatuko	-8637
▁Pazifikoko	-8638
▁erantzukizun	-8639
▁liburuaren	-8640
▁Jox	-8641
▁Parte	-8642
▁Fo	-8643
batz	-8644
▁Familia	-8645
doren	-8646
▁haietan	-8647
Comté	-8648
▁korr	-8649
etxeko	-8650
osi	-8651
▁Portland	-8652
▁izendatzeko	-8653
araztea	-8654
arretako	-8655
▁egunkariak	-8656
▁atzel	-8657
▁txikiago	-8658
▁Hawaii	-8659
evic	-8660
burgo	-8661
▁Hamar	-8662
▁Txileko	-8663
!"	-8664
▁gertakari	-8665
omys	-8666
▁Dam	-8667
olde	-8668
▁urtearen	-8669
kov	-8670
vin	-8671
tron	-8672
▁Bis	-8673
▁Zal	-8674
▁zirelako	-8675
entzea	-8676
▁arrunta	-8677
▁Frantzisko	-8678
ches	-8679
▁Legebiltzarrak	-8680
uriko	-8681
▁egoerak	-8682
gaia	-8683
▁gunea	-8684
rique	-8685
▁Ondo	-8686
▁EAJko	-8687
▁Nobel	-8688
▁Castel	-8689
▁hay	-8690
▁harata	-8691
▁itxita	-8692
▁oinarriak	-8693
▁oinarritua	-8694
dox	-8695
▁luzeak	-8696
labo	-8697
▁gorputza	-8698
▁land	-8699
▁Otsail	-8700
▁Liv	-8701
ulatu	-8702
rimin	-8703
▁erretr	-8704
▁kooper	-8705
▁erantzuten	-8706
aroa	-8707
▁pal	-8708
▁Bego	-8709
▁judizial	-8710
aztun	-8711
ismoan	-8712
arrizketak	-8713
▁EG	-8714
▁Batzordeko	-8715
tana	-8716
▁Erroman	-8717
▁instituzio	-8718
bach	-8719
utia	-8720
▁Rafael	-8721
alderantz	-8722
▁Zazpi	-8723
▁arropa	-8724
▁Errumaniako	-8725
ding	-8726
aziorik	-8727
";	-8728
▁Arz	-8729
▁Hortik	-8730
▁Ra	-8731
▁Azn	-8732
▁alko	-8733
▁onartzeko	-8734
▁Siz	-8735
▁Iman	-8736
tegiko	-8737
hen	-8738
▁taldekide	-8739
xen	-8740
▁Ly	-8741
▁etap	-8742
▁Eder	-8743
▁kezk	-8744
▁apropos	-8745
▁substan	-8746
▁legearen	-8747
▁dien	-8748
▁oihartz	-8749
ailu	-8750
alitatea	-8751
▁zihoan	-8752
idoa	-8753
▁agente	-8754
gus	-8755
▁Kontx	-8756
▁Espa	-8757
▁Mary	-8758
▁faktore	-8759
▁emakumezkoen	-8760
▁Konf	-8761
▁arduraduna	-8762
izkoa	-8763
▁behe	-8764
▁opera	-8765
ación	-8766
▁zigun	-8767
▁Lep	-8768
▁makur	-8769
▁Argazk	-8770
▁deskribatu	-8771
▁hoz	-8772
etxearen	-8773
kol	-8774
▁Bik	-8775
▁itun	-8776
▁abertzaleak	-8777
▁Errusia	-8778
▁ekartzen	-8779
ican	-8780
▁Cour	-8781
▁jarrita	-8782
▁Auvernia	-8783
▁mugimenduak	-8784
▁beraiek	-8785
▁kartzelan	-8786
▁bank	-8787
Pierre	-8788
▁hobek	-8789
ioari	-8790
▁zub	-8791
▁edizioa	-8792
▁inon	-8793
▁hamarkadetan	-8794
kera	-8795
Rodano	-8796
▁ospetsu	-8797
▁Ota	-8798
▁difer	-8799
▁Enpresa	-8800
▁zubia	-8801
▁aitak	-8802
▁zutabe	-8803
AREN	-8804
▁Ote	-8805
▁jabetza	-8806
▁gerraren	-8807
▁Ezaugarri	-8808
▁́	-8809
yprin	-8810
▁Etxean	-8811
▁izanak	-8812
▁aspaldi	-8813
▁esanah	-8814
▁horiekin	-8815
antzak	-8816
illers	-8817
▁Urtarr	-8818
▁Lim	-8819
we	-8820
nom	-8821
▁Vien	-8822
▁presioa	-8823
▁mantentzeko	-8824
▁garaile	-8825
▁hitzaldia	-8826
▁Mit	-8827
▁dimisioa	-8828
kero	-8829
iev	-8830
azioen	-8831
▁Batez	-8832
▁berrian	-8833
▁Lea	-8834
▁Rock	-8835
▁konturatu	-8836
▁oraingoan	-8837
▁Meta	-8838
▁Laster	-8839
▁Armen	-8840
▁Kontseiluko	-8841
▁Idatz	-8842
▁txikien	-8843
▁interesgarria	-8844
▁estra	-8845
DI	-8846
▁Joseph	-8847
▁bozeramaileak	-8848
▁Mis	-8849
▁auzoa	-8850
▁García	-8851
urretik	-8852
▁alda	-8853
▁tontor	-8854
▁dutenen	-8855
▁ezberdinetan	-8856
ii	-8857
itore	-8858
▁ituna	-8859
▁Oiartz	-8860
▁Bibl	-8861
ediako	-8862
leta	-8863
▁autor	-8864
▁hotz	-8865
egatik	-8866
▁gaztel	-8867
▁zientifikoa	-8868
bus	-8869
▁autoa	-8870
▁kimiko	-8871
▁zuk	-8872
▁Pilo	-8873
▁zezak	-8874
▁multzoa	-8875
▁Batzuetan	-8876
▁mezua	-8877
▁borondatea	-8878
fan	-8879
▁AEBetan	-8880
▁Parla	-8881
azioari	-8882
▁gehiagok	-8883
osen	-8884
ikipedia	-8885
▁ipini	-8886
sor	-8887
▁Illinois	-8888
alista	-8889
▁jardunaldi	-8890
▁euts	-8891
▁Urteko	-8892
▁nabig	-8893
▁County	-8894
▁aldatzea	-8895
▁Merkataritza	-8896
▁AC	-8897
idel	-8898
▁daukan	-8899
▁defendatu	-8900
▁ikerketak	-8901
▁terminoa	-8902
▁Zeh	-8903
▁gola	-8904
▁patron	-8905
Em	-8906
▁trik	-8907
▁puntuak	-8908
▁euskaldunak	-8909
zkoa	-8910
▁Euskaldun	-8911
▁alderdiaren	-8912
▁XIV	-8913
▁LABek	-8914
ategiak	-8915
gaur	-8916
▁Kro	-8917
▁zebil	-8918
▁biztanler	-8919
opsia	-8920
▁Buenos	-8921
▁inbas	-8922
lekua	-8923
▁atzeratu	-8924
▁transmit	-8925
▁Israelek	-8926
▁Erdialdeko	-8927
▁Lac	-8928
tegiaren	-8929
▁Gald	-8930
▁ertz	-8931
alekua	-8932
▁zitez	-8933
▁Martín	-8934
▁Klub	-8935
▁Galiziako	-8936
▁hegazti	-8937
▁defendatzen	-8938
▁bitan	-8939
oari	-8940
▁Irailaren	-8941
ladol	-8942
▁legeg	-8943
▁ziola	-8944
▁gertak	-8945
▁herrixka	-8946
▁Deskrib	-8947
▁entrenatzailea	-8948
agaien	-8949
▁eskuz	-8950
▁alderdien	-8951
▁Luc	-8952
arden	-8953
▁auzi	-8954
▁lak	-8955
▁hortaz	-8956
▁zentzu	-8957
▁Vol	-8958
▁klasiko	-8959
▁materiala	-8960
▁fede	-8961
▁Gom	-8962
▁zelaian	-8963
▁alderatuta	-8964
Aren	-8965
lazio	-8966
▁lasa	-8967
▁komedia	-8968
EP	-8969
Pal	-8970
▁onur	-8971
▁gaitza	-8972
▁diseinu	-8973
▁jakitea	-8974
▁argitara	-8975
sia	-8976
▁plataforma	-8977
▁fatx	-8978
▁dauzk	-8979
▁Eztabai	-8980
▁aurkituko	-8981
▁Akord	-8982
egal	-8983
▁Batuek	-8984
aski	-8985
▁lagunen	-8986
▁konden	-8987
nen	-8988
▁berdinak	-8989
▁amak	-8990
▁My	-8991
▁Tan	-8992
▁Carr	-8993
▁haize	-8994
tig	-8995
▁ase	-8996
Ge	-8997
osexu	-8998
▁Egilea	-8999
▁italiar	-9000
▁kontzeptua	-9001
nam	-9002
▁FC	-9003
▁co	-9004
▁Lek	-9005
▁ikast	-9006
▁handienak	-9007
▁jazz	-9008
▁epaik	-9009
▁Zeelanda	-9010
▁Athleticek	-9011
▁ospakizun	-9012
▁Mait	-9013
▁Auto	-9014
▁kore	-9015
▁kontratu	-9016
itis	-9017
▁Jokoak	-9018
▁idazteko	-9019
▁errealitatea	-9020
▁Ilar	-9021
▁abel	-9022
▁arnas	-9023
▁etengabeko	-9024
iakor	-9025
▁beldurra	-9026
Is	-9027
▁arb	-9028
amendi	-9029
▁EHUko	-9030
▁galera	-9031
▁Bretain	-9032
▁musikaren	-9033
▁prentsaurreko	-9034
▁ezinbesteko	-9035
arita	-9036
▁dimen	-9037
▁derrigorre	-9038
▁diskur	-9039
tzearekin	-9040
▁historiako	-9041
▁hondartz	-9042
▁Ia	-9043
▁berreskuratzeko	-9044
egon	-9045
korik	-9046
▁baliatzen	-9047
▁Hob	-9048
▁NAT	-9049
andar	-9050
▁eskal	-9051
▁korronte	-9052
▁Imanol	-9053
▁Partida	-9054
▁baziren	-9055
▁Urib	-9056
▁Baionan	-9057
▁urteetako	-9058
eck	-9059
iplina	-9060
▁aginte	-9061
▁itzulpen	-9062
▁susta	-9063
▁zeren	-9064
▁konposatu	-9065
▁nobela	-9066
▁una	-9067
▁folk	-9068
▁Herenegun	-9069
▁duin	-9070
▁definitzen	-9071
erbio	-9072
▁bihotz	-9073
▁Bus	-9074
▁aldatuko	-9075
▁dutenean	-9076
▁Cyprin	-9077
▁ikastetx	-9078
▁Ehun	-9079
iguten	-9080
▁Itsaso	-9081
▁etortzen	-9082
▁minerala	-9083
NC	-9084
▁Vicente	-9085
▁VII	-9086
▁Torre	-9087
▁dramat	-9088
▁justizia	-9089
pur	-9090
hes	-9091
▁Dal	-9092
▁Irun	-9093
▁adituek	-9094
▁tresnak	-9095
▁enpresaburu	-9096
▁mm	-9097
▁epailearen	-9098
▁Kopan	-9099
tzian	-9100
▁Radio	-9101
ixe	-9102
▁Eskuz	-9103
▁gitarra	-9104
cea	-9105
▁Alta	-9106
▁intern	-9107
▁oztopo	-9108
IB	-9109
▁partide	-9110
lah	-9111
▁elektrikoaren	-9112
▁Baiona	-9113
lis	-9114
field	-9115
▁aliatu	-9116
▁egokiak	-9117
▁iradok	-9118
▁lituzke	-9119
▁diezaio	-9120
▁kokaturik	-9121
▁Zel	-9122
gabea	-9123
▁Azko	-9124
▁gurasoak	-9125
▁eskalaren	-9126
▁Biltz	-9127
▁arrau	-9128
▁sortzailea	-9129
mond	-9130
▁errepidea	-9131
ieu	-9132
▁aparte	-9133
▁erbester	-9134
▁Bitartean	-9135
▁kontrakoa	-9136
▁errefuxiatu	-9137
onne	-9138
▁probin	-9139
▁argentin	-9140
▁lurraldean	-9141
▁Eslovakiako	-9142
ary	-9143
▁EBko	-9144
▁prozedura	-9145
▁isla	-9146
tzekoa	-9147
▁argudiatu	-9148
ines	-9149
▁Oliv	-9150
▁tona	-9151
▁kode	-9152
▁hamarkad	-9153
▁botatzen	-9154
▁enpresako	-9155
▁konderriak	-9156
▁zilarrezko	-9157
▁AEBek	-9158
▁Nekazaritza	-9159
Oh	-9160
▁fase	-9161
▁infek	-9162
▁txartel	-9163
Qu	-9164
adun	-9165
ière	-9166
▁Berdin	-9167
▁erakundeek	-9168
amend	-9169
▁Liber	-9170
▁erregistro	-9171
▁Champ	-9172
▁okerra	-9173
▁artikulua	-9174
▁eraikitako	-9175
▁meteor	-9176
▁militarrak	-9177
▁garbia	-9178
▁Ox	-9179
▁handitzen	-9180
▁pertsonetatik	-9181
▁Bertsol	-9182
▁Politik	-9183
▁finean	-9184
ietate	-9185
▁Galesko	-9186
▁Yor	-9187
▁Ron	-9188
▁tents	-9189
▁tun	-9190
▁Maiatzaren	-9191
▁Poliziaren	-9192
▁zitzaizkion	-9193
▁ondorioztatu	-9194
IC	-9195
pez	-9196
▁Larunbat	-9197
▁leporatzen	-9198
▁gogortasunaren	-9199
oo	-9200
ezka	-9201
▁Bank	-9202
alaba	-9203
▁Mohs	-9204
▁blog	-9205
▁gehiengoa	-9206
▁leiho	-9207
tiketak	-9208
▁haratago	-9209
▁zubi	-9210
▁gizakiaren	-9211
gorri	-9212
▁Erresum	-9213
▁Dek	-9214
arreta	-9215
▁pisua	-9216
▁Kab	-9217
▁Elik	-9218
▁Produk	-9219
▁topo	-9220
▁Larra	-9221
▁izoz	-9222
▁ezazu	-9223
arter	-9224
▁Honela	-9225
▁deskribatzen	-9226
▁Jugoslav	-9227
laur	-9228
▁bateratu	-9229
▁susm	-9230
▁Azkar	-9231
▁maitasun	-9232
terror	-9233
▁Diego	-9234
▁subjek	-9235
tic	-9236
▁zurr	-9237
▁Roberto	-9238
▁ezkontza	-9239
Ara	-9240
ova	-9241
▁Zam	-9242
ares	-9243
▁irekia	-9244
▁ahalegina	-9245
▁Departa	-9246
▁guztion	-9247
▁aditzera	-9248
▁Bour	-9249
▁Metro	-9250
▁Katol	-9251
▁Je	-9252
▁Stre	-9253
▁Egungo	-9254
▁eragingo	-9255
itzeak	-9256
learen	-9257
iba	-9258
alus	-9259
arab	-9260
▁inpl	-9261
▁Isabel	-9262
▁sailburuak	-9263
▁Australiako	-9264
▁adierazpenak	-9265
iletik	-9266
▁aritzea	-9267
irano	-9268
▁pase	-9269
TO	-9270
▁Ostir	-9271
▁erlaz	-9272
▁lehentasuna	-9273
▁hunk	-9274
▁eztan	-9275
▁ozean	-9276
old	-9277
▁Ide	-9278
▁zon	-9279
utiko	-9280
▁haran	-9281
▁mugan	-9282
▁detek	-9283
▁urdur	-9284
▁Espezi	-9285
▁biktima	-9286
▁Jas	-9287
▁Moz	-9288
▁akor	-9289
▁prez	-9290
▁batzen	-9291
▁Rec	-9292
▁museo	-9293
▁aurpegi	-9294
▁gogorarazi	-9295
▁ipin	-9296
▁ospatzeko	-9297
sar	-9298
▁Plaza	-9299
▁negozia	-9300
▁enpresek	-9301
ilatu	-9302
▁Batua	-9303
ís	-9304
enik	-9305
▁Oñ	-9306
aleen	-9307
Lan	-9308
▁gael	-9309
▁berpiz	-9310
▁gizakiak	-9311
▁Gauza	-9312
▁eguzk	-9313
▁uraren	-9314
fel	-9315
arrerako	-9316
▁aldakor	-9317
▁marrazki	-9318
rena	-9319
▁zaien	-9320
▁onartzea	-9321
▁°	-9322
Sal	-9323
▁krisi	-9324
▁moztu	-9325
▁kalteak	-9326
▁Udalaren	-9327
▁·	-9328
▁Duran	-9329
▁ondare	-9330
egoen	-9331
▁zailtasun	-9332
▁City	-9333
▁bertsioa	-9334
▁ezberdina	-9335
PS	-9336
ead	-9337
▁iruditu	-9338
▁dog	-9339
▁Andal	-9340
▁artistak	-9341
▁zaharrena	-9342
▁istil	-9343
agab	-9344
tzio	-9345
▁katalan	-9346
▁zalantza	-9347
egua	-9348
▁ezuste	-9349
▁azido	-9350
Bestelako	-9351
▁asiarrak	-9352
▁afroamerikarrak	-9353
▁Henry	-9354
▁zelai	-9355
▁defentsan	-9356
GO	-9357
bet	-9358
tekn	-9359
▁Zela	-9360
▁berrikuntza	-9361
▁suts	-9362
▁abestia	-9363
▁mendetik	-9364
hartzaile	-9365
▁txalo	-9366
▁arraun	-9367
▁amaren	-9368
▁txostenak	-9369
▁Trin	-9370
ordeak	-9371
Eta	-9372
▁Pents	-9373
▁Afrika	-9374
▁ikertu	-9375
▁Finland	-9376
ariko	-9377
▁Jarr	-9378
▁haurdun	-9379
▁Lehendak	-9380
▁herrialdea	-9381
inus	-9382
▁von	-9383
egira	-9384
▁denok	-9385
▁utziz	-9386
▁bizitzen	-9387
esku	-9388
iderik	-9389
▁www	-9390
aldeak	-9391
delo	-9392
▁aldez	-9393
▁sustra	-9394
▁uretan	-9395
▁zuelarik	-9396
gobern	-9397
▁egunaren	-9398
▁baitzituen	-9399
▁Orb	-9400
▁tortura	-9401
tiboa	-9402
tarren	-9403
▁batzuetara	-9404
▁Cu	-9405
▁buruko	-9406
▁mugatu	-9407
▁Aurtengo	-9408
▁bermatzen	-9409
▁kostaldean	-9410
andro	-9411
▁motel	-9412
▁erakundea	-9413
▁Mu	-9414
zentr	-9415
▁nortasun	-9416
▁etorkizuneko	-9417
iena	-9418
▁Ariz	-9419
▁segi	-9420
▁txuriak	-9421
osia	-9422
▁Datu	-9423
▁Zentr	-9424
▁inbad	-9425
biderik	-9426
▁telebistan	-9427
▁erabakigarria	-9428
▁King	-9429
▁Pap	-9430
▁Indar	-9431
▁matxinada	-9432
▁greziar	-9433
▁ateratzea	-9434
▁Martxoaren	-9435
▁gutxieneko	-9436
fal	-9437
▁kalera	-9438
▁erakundeen	-9439
atro	-9440
▁konkis	-9441
▁mister	-9442
▁alderdia	-9443
▁liga	-9444
▁egoeran	-9445
▁kontzientzia	-9446
▁Etxeko	-9447
▁lantegi	-9448
▁Legearen	-9449
fis	-9450
fera	-9451
▁Dor	-9452
▁aktoreak	-9453
▁irauten	-9454
▁ziurrenik	-9455
emak	-9456
▁badaki	-9457
guna	-9458
▁Bav	-9459
▁Udala	-9460
batean	-9461
ziozko	-9462
▁Baita	-9463
▁irletako	-9464
▁Str	-9465
▁Erriox	-9466
▁artxib	-9467
▁lortuz	-9468
▁erosteko	-9469
▁vo	-9470
▁PSOEk	-9471
▁astin	-9472
biltzan	-9473
▁Castro	-9474
▁zentsoan	-9475
▁pon	-9476
▁sozialak	-9477
▁lankidetza	-9478
▁Bien	-9479
▁Indian	-9480
▁hispanoak	-9481
▁Cruz	-9482
▁Hernan	-9483
▁Nazionalean	-9484
▁erregistr	-9485
▁lantokiak	-9486
▁hartzera	-9487
▁Gernikako	-9488
▁arrantza	-9489
▁irakurketa	-9490
elk	-9491
▁kantari	-9492
▁EAJren	-9493
▁bisitatu	-9494
▁zabalduko	-9495
▁karga	-9496
▁konta	-9497
▁Belgikako	-9498
idoak	-9499
▁probintzi	-9500
▁Txina	-9501
▁funtzionario	-9502
ekor	-9503
ull	-9504
aintza	-9505
iaritza	-9506
▁oraingo	-9507
▁zerikusirik	-9508
TS	-9509
▁Erem	-9510
▁Valentziako	-9511
ainek	-9512
▁Alfre	-9513
▁laguntzaz	-9514
asta	-9515
iritz	-9516
uga	-9517
▁Crist	-9518
nal	-9519
▁karrera	-9520
▁aparteko	-9521
▁kudeatzen	-9522
▁kaleetan	-9523
▁mugatzen	-9524
▁mendea	-9525
▁artikuluak	-9526
▁kontrolatzen	-9527
▁deialdia	-9528
olin	-9529
egitik	-9530
▁esaldi	-9531
▁Normalean	-9532
urteko	-9533
mendebaldeko	-9534
san	-9535
arkia	-9536
agardo	-9537
lat	-9538
▁parek	-9539
▁gidari	-9540
ikas	-9541
▁erakustal	-9542
▁Ingalaterra	-9543
▁Haz	-9544
aturen	-9545
▁igotzen	-9546
▁bok	-9547
▁sarri	-9548
ono	-9549
umena	-9550
▁heren	-9551
▁jaialdia	-9552
▁oinarritu	-9553
logo	-9554
tres	-9555
▁PSOE	-9556
izatzeko	-9557
dy	-9558
▁Joa	-9559
▁azalpen	-9560
ED	-9561
▁AEK	-9562
▁Nag	-9563
behin	-9564
▁greb	-9565
▁Borro	-9566
tino	-9567
▁egitean	-9568
▁ordezkatzen	-9569
▁zailtasunak	-9570
▁pian	-9571
▁Eguzk	-9572
eps	-9573
espena	-9574
▁nahastu	-9575
▁iraultza	-9576
isek	-9577
osek	-9578
▁Andoni	-9579
▁sariak	-9580
▁garaikide	-9581
▁Bih	-9582
uari	-9583
▁kora	-9584
▁Konpain	-9585
▁Udaleko	-9586
▁operazio	-9587
▁Pom	-9588
▁World	-9589
▁pobre	-9590
▁Kantab	-9591
▁zenuen	-9592
▁atzerriko	-9593
▁ekonomiaren	-9594
▁Itur	-9595
▁Uniberts	-9596
▁muturreko	-9597
▁irakaskuntza	-9598
▁drog	-9599
▁Gam	-9600
▁Deskribapena	-9601
timologia	-9602
▁uhartean	-9603
▁ekoizpena	-9604
mith	-9605
iozko	-9606
▁kolorea	-9607
▁filmaren	-9608
Espainiako	-9609
▁Ku	-9610
▁bereizi	-9611
erek	-9612
▁Batetik	-9613
▁Hill	-9614
▁zirk	-9615
▁zenbakia	-9616
▁debuta	-9617
▁eboluz	-9618
tikak	-9619
amortu	-9620
itzearen	-9621
cor	-9622
▁ezagunena	-9623
▁Filip	-9624
▁hasitako	-9625
▁bikoitza	-9626
▁Iparraldean	-9627
▁Barakaldo	-9628
▁itzultzen	-9629
Th	-9630
pea	-9631
▁eginak	-9632
▁Borgoina	-9633
▁hizkuntzak	-9634
istiko	-9635
▁errusiar	-9636
▁ezartzea	-9637
giaren	-9638
korpor	-9639
▁halere	-9640
erdiko	-9641
lip	-9642
▁Gauzak	-9643
▁memoria	-9644
▁Valladol	-9645
▁denboraldiko	-9646
▁Lar	-9647
▁Nagusian	-9648
Ab	-9649
▁ondorioa	-9650
Jean	-9651
iarik	-9652
▁uhin	-9653
▁eskasa	-9654
▁berritu	-9655
▁Esaterako	-9656
▁erakundearen	-9657
▁interpretazio	-9658
▁Sun	-9659
▁fax	-9660
▁sab	-9661
▁konek	-9662
▁Alaves	-9663
▁guztiekin	-9664
»"	-9665
▁Gut	-9666
derik	-9667
riako	-9668
▁elkarri	-9669
▁pairatzen	-9670
rigo	-9671
▁Roy	-9672
imnas	-9673
▁migr	-9674
▁Reala	-9675
▁zezen	-9676
▁identifikatu	-9677
▁erantzukizuna	-9678
▁Nan	-9679
▁Guz	-9680
hispano	-9681
▁franko	-9682
erba	-9683
▁Michel	-9684
▁Loh	-9685
▁iluna	-9686
▁zeinak	-9687
▁argitalpen	-9688
▁Sk	-9689
▁Peñ	-9690
▁dioen	-9691
dactylus	-9692
▁aurrerantzean	-9693
lehen	-9694
uelako	-9695
▁exek	-9696
▁esangurats	-9697
▁Andres	-9698
▁Aurrera	-9699
▁Gaztelako	-9700
▁batzordeak	-9701
▁Batuan	-9702
▁Sebast	-9703
▁Olaizola	-9704
▁amore	-9705
▁beharrezkoak	-9706
▁Boliv	-9707
▁Manifes	-9708
▁Wood	-9709
▁donosti	-9710
▁Azp	-9711
▁Prob	-9712
▁Zibilak	-9713
▁Sinopsia	-9714
▁nahasten	-9715
▁antzekoak	-9716
▁zitzaidan	-9717
▁Tit	-9718
gaztelaniaz	-9719
gol	-9720
▁zituenean	-9721
▁juridiko	-9722
askarien	-9723
▁eban	-9724
▁Jerus	-9725
▁arriskutsua	-9726
oiak	-9727
raziaren	-9728
▁Hip	-9729
apelle	-9730
▁ordezkar	-9731
laus	-9732
▁utzitako	-9733
▁espezializ	-9734
él	-9735
▁Mem	-9736
▁begiratzen	-9737
▁Eneko	-9738
▁Atzoko	-9739
▁Mendeb	-9740
▁delitu	-9741
darrak	-9742
▁bikoiz	-9743
ERA	-9744
odia	-9745
▁kri	-9746
▁Osasuna	-9747
▁irteera	-9748
▁ikusgarria	-9749
▁Gaztel	-9750
▁altza	-9751
win	-9752
▁Pun	-9753
▁ident	-9754
orraren	-9755
▁kentzen	-9756
▁asteartean	-9757
▁jaiot	-9758
▁Konstituzioaren	-9759
▁Hab	-9760
▁zek	-9761
▁herrialdeetan	-9762
vis	-9763
dutako	-9764
▁ikertzaile	-9765
illon	-9766
▁Tu	-9767
▁Gaurko	-9768
▁Zarau	-9769
▁nazioartean	-9770
agoak	-9771
▁konpromiso	-9772
▁Rog	-9773
▁organo	-9774
▁proportz	-9775
▁dau	-9776
lemen	-9777
maila	-9778
iger	-9779
txin	-9780
ismoari	-9781
rian	-9782
▁ELAk	-9783
etena	-9784
▁tartea	-9785
Nafarroa	-9786
▁inkorpor	-9787
▁nolabaiteko	-9788
▁txanp	-9789
▁erresisten	-9790
▁Jokalari	-9791
anth	-9792
erei	-9793
▁isol	-9794
izazioak	-9795
Bel	-9796
▁ukan	-9797
▁got	-9798
▁sarea	-9799
▁elkartzen	-9800
raul	-9801
▁bark	-9802
▁aldaera	-9803
igel	-9804
▁ertzain	-9805
usto	-9806
atzan	-9807
▁supos	-9808
▁Fakulta	-9809
irr	-9810
ses	-9811
▁taula	-9812
rei	-9813
bata	-9814
▁disol	-9815
▁jaits	-9816
▁ordaintzen	-9817
▁Jaurlaritza	-9818
idako	-9819
▁igar	-9820
ologiaren	-9821
▁Ministerioak	-9822
▁hidro	-9823
Franche	-9824
▁titulu	-9825
▁Mall	-9826
▁egunak	-9827
▁Nagusiko	-9828
TX	-9829
▁seigarren	-9830
omin	-9831
▁osoz	-9832
aterial	-9833
▁Arzall	-9834
▁Adieraz	-9835
▁iruzkin	-9836
▁abestiak	-9837
▁letra	-9838
ekialdeko	-9839
▁kask	-9840
▁Gizak	-9841
▁Filosof	-9842
▁eleberria	-9843
▁ostegunean	-9844
iler	-9845
▁txal	-9846
▁Portugalgo	-9847
teneg	-9848
▁Noiz	-9849
▁turki	-9850
▁oxigen	-9851
▁Salvador	-9852
▁Modu	-9853
▁Arazo	-9854
▁bihurtzeko	-9855
ün	-9856
ebre	-9857
▁Egu	-9858
▁EAko	-9859
hiz	-9860
▁agertuko	-9861
▁Urriaren	-9862
▁demokratiko	-9863
▁doin	-9864
enteak	-9865
▁Afrikan	-9866
▁beharrak	-9867
▁Inperioaren	-9868
▁Fermin	-9869
▁Espezie	-9870
▁esklabo	-9871
▁brontzezko	-9872
KA	-9873
elaren	-9874
▁argitzeko	-9875
▁txar	-9876
kuntzan	-9877
▁zutena	-9878
MA	-9879
▁okupatu	-9880
▁antzezlan	-9881
▁Adam	-9882
▁Kore	-9883
Donostia	-9884
▁irabazita	-9885
▁Suediako	-9886
▁aldarrikapen	-9887
▁anal	-9888
▁inkorporatutako	-9889
▁Gabriel	-9890
▁elikagai	-9891
▁Iazko	-9892
Par	-9893
▁Kors	-9894
▁adostu	-9895
▁aldekoa	-9896
pek	-9897
▁Cra	-9898
och	-9899
▁ospatuko	-9900
▁Len	-9901
▁Sur	-9902
▁Eras	-9903
▁Berriko	-9904
▁gehiena	-9905
▁Erantz	-9906
▁zald	-9907
ied	-9908
Europ	-9909
▁Berme	-9910
▁Union	-9911
gailuak	-9912
▁ordutik	-9913
ogo	-9914
igur	-9915
▁ondar	-9916
▁Akitania	-9917
▁bidaiari	-9918
▁ikuskizuna	-9919
pas	-9920
▁alkatea	-9921
▁herrietan	-9922
▁jardunaldian	-9923
joko	-9924
timen	-9925
▁Arre	-9926
▁beretik	-9927
▁abantaila	-9928
▁Cyprinidae	-9929
kio	-9930
▁Virgin	-9931
▁Horietako	-9932
▁Tes	-9933
▁barruti	-9934
▁bizitzako	-9935
uge	-9936
▁DE	-9937
ortzi	-9938
De	-9939
▁ikur	-9940
larien	-9941
▁zaiola	-9942
▁udako	-9943
▁Quebec	-9944
▁zabaltzea	-9945
▁kex	-9946
▁sobi	-9947
▁hondor	-9948
▁hauetako	-9949
▁erail	-9950
burgoko	-9951
▁armatu	-9952
▁gutxitan	-9953
cen	-9954
lot	-9955
denda	-9956
aldatu	-9957
▁arbu	-9958
▁sold	-9959
▁Ville	-9960
▁Andaluz	-9961
▁abokatuak	-9962
▁Herriz	-9963
▁Handiko	-9964
▁neurria	-9965
andan	-9966
▁matrik	-9967
▁Jacques	-9968
▁aztarnak	-9969
▁biltz	-9970
bateko	-9971
▁motib	-9972
ieratik	-9973
▁testuak	-9974
▁zehatzak	-9975
▁Borde	-9976
▁Antzok	-9977
▁bizimodu	-9978
arka	-9979
▁Erra	-9980
▁fisikoa	-9981
aritzan	-9982
▁espres	-9983
▁Sek	-9984
aleek	-9985
▁Disko	-9986
▁elur	-9987
agaren	-9988
htt	-9989
▁Jakin	-9990
▁bidetik	-9991
kian	-9992
kuntzak	-9993
▁Gorenak	-9994
▁guztiaren	-9995
▁Elor	-9996
▁Ty	-9997
atela	-9998
▁Udalerrian	-9999
lij	-10000
▁zizkien	-10001
▁Sub	-10002
alera	-10003
▁Ekital	-10004
▁Antzerki	-10005
▁Nork	-10006
▁Horri	-10007
▁gabea	-10008
ateriaren	-10009
▁ais	-10010
▁rol	-10011
▁eskuineko	-10012
eur	-10013
▁gose	-10014
▁prezioa	-10015
▁funtzionatzen	-10016
▁Ospital	-10017
Man	-10018
alizazio	-10019
▁gurasoek	-10020
Den	-10021
▁ahalko	-10022
adoreak	-10023
▁Lem	-10024
▁energ	-10025
errera	-10026
▁izatearen	-10027
▁ac	-10028
odon	-10029
▁fid	-10030
▁lehenb	-10031
▁erdialdeko	-10032
ibr	-10033
▁Bell	-10034
▁Beren	-10035
ierazko	-10036
▁atzeko	-10037
▁trants	-10038
antzi	-10039
eleta	-10040
▁Zorn	-10041
▁tax	-10042
▁Stan	-10043
▁Demok	-10044
▁akordioak	-10045
▁bilatzeko	-10046
▁erlijioso	-10047
▁pintura	-10048
▁Mitx	-10049
▁Testu	-10050
▁denek	-10051
upen	-10052
▁hausnarketa	-10053
gariako	-10054
▁Ay	-10055
▁Tolosako	-10056
▁izotz	-10057
▁erasoan	-10058
eriko	-10059
Con	-10060
txu	-10061
▁Bah	-10062
▁tox	-10063
tikula	-10064
▁Carmen	-10065
▁zabalera	-10066
▁Ministro	-10067
▁ibilbidean	-10068
kab	-10069
idak	-10070
▁ganb	-10071
▁merkatur	-10072
sw	-10073
▁Hend	-10074
▁posizio	-10075
ikotasuna	-10076
▁zuenetik	-10077
arraioa	-10078
▁lehengo	-10079
▁daudenak	-10080
▁biztanleen	-10081
▁hamarkadako	-10082
▁Intx	-10083
erakoa	-10084
▁Enrique	-10085
▁funtzioa	-10086
▁instalazio	-10087
▁NATO	-10088
▁geometr	-10089
▁kristal	-10090
▁politikaren	-10091
▁departamenduko	-10092
▁""	-10093
▁alor	-10094
▁guztiok	-10095
ness	-10096
▁Hitza	-10097
▁Parke	-10098
▁ibaiak	-10099
pis	-10100
icul	-10101
vent	-10102
iriko	-10103
▁Energia	-10104
▁inbertsio	-10105
▁merkatuan	-10106
▁Txapeldunen	-10107
▁paz	-10108
▁Univers	-10109
▁zehazteko	-10110
▁gogoratzen	-10111
loa	-10112
sch	-10113
▁Kontra	-10114
▁baliogabe	-10115
ustuko	-10116
▁duzula	-10117
▁bukaera	-10118
▁jotzeko	-10119
▁arku	-10120
aldearen	-10121
▁zorrotza	-10122
▁ezoh	-10123
▁Kanadako	-10124
▁baloia	-10125
▁atsegin	-10126
▁dagokio	-10127
▁katalun	-10128
▁usain	-10129
▁askotar	-10130
▁doktore	-10131
▁Idatzizko	-10132
▁aldizkariak	-10133
atikoa	-10134
gailua	-10135
▁omenaldia	-10136
▁Sand	-10137
▁Aditu	-10138
▁altxatu	-10139
itatean	-10140
▁gram	-10141
▁Kursa	-10142
▁Hegoafrik	-10143
▁zuzendaritz	-10144
▁Poz	-10145
aros	-10146
tetan	-10147
▁geruza	-10148
▁homosexu	-10149
AEB	-10150
▁jokatutako	-10151
▁sh	-10152
▁Ganb	-10153
▁Aldiz	-10154
▁demokratikoa	-10155
▁Literatura	-10156
▁ekitaldiak	-10157
▁",	-10158
cako	-10159
▁Zinema	-10160
▁aldizkaria	-10161
▁Lehena	-10162
▁duenik	-10163
▁agintzen	-10164
▁askotako	-10165
▁Dun	-10166
tzerakoan	-10167
▁Eku	-10168
istea	-10169
itr	-10170
▁emanaldia	-10171
▁Stu	-10172
▁aintzira	-10173
orria	-10174
▁esplor	-10175
gue	-10176
▁Son	-10177
▁lehor	-10178
▁galdegin	-10179
ialek	-10180
Egun	-10181
obat	-10182
▁argiketariak	-10183
amon	-10184
▁ordura	-10185
low	-10186
▁Pis	-10187
▁duguna	-10188
▁hitzetik	-10189
▁osorik	-10190
HT	-10191
▁ma	-10192
▁Ern	-10193
agune	-10194
▁berandu	-10195
▁alderatu	-10196
▁zuzendaritzak	-10197
▁Herio	-10198
▁politikan	-10199
▁gorro	-10200
TZA	-10201
irrek	-10202
▁erraldoi	-10203
etxen	-10204
Espainia	-10205
▁nonbait	-10206
▁ordezko	-10207
Azken	-10208
▁kabuz	-10209
▁Irungo	-10210
▁aldian	-10211
▁markatu	-10212
▁zaizkie	-10213
▁Aurretik	-10214
▁buruaz	-10215
▁bidaltzen	-10216
▁elementuak	-10217
▁elkarrizketak	-10218
▁Amaia	-10219
▁polem	-10220
▁Vla	-10221
▁umeak	-10222
▁independent	-10223
▁atze	-10224
betean	-10225
▁Yorken	-10226
▁lanarekin	-10227
▁pertsonaiak	-10228
ace	-10229
▁kontzertuak	-10230
ase	-10231
▁Hid	-10232
▁helburuarekin	-10233
berts	-10234
ibaloi	-10235
▁atala	-10236
▁lurrean	-10237
dium	-10238
▁Pow	-10239
▁etsai	-10240
▁haurrek	-10241
▁Espainiaren	-10242
▁zid	-10243
itarrek	-10244
▁irtenbide	-10245
▁aurkitzeko	-10246
dore	-10247
▁zentim	-10248
andon	-10249
▁argiz	-10250
▁baserri	-10251
▁aro	-10252
isaia	-10253
oriak	-10254
▁espedizio	-10255
▁konkistatu	-10256
▁prozesuaren	-10257
▁bahitu	-10258
▁animalien	-10259
▁programak	-10260
▁Teknologia	-10261
liz	-10262
txak	-10263
erritar	-10264
▁desberdina	-10265
izak	-10266
▁espezif	-10267
▁Mut	-10268
▁tre	-10269
▁guduan	-10270
koz	-10271
▁EAEn	-10272
▁soil	-10273
KE	-10274
▁Lav	-10275
▁eskolako	-10276
▁kontzentrazio	-10277
▁deklaratu	-10278
▁estatubatuarra	-10279
tiar	-10280
etsua	-10281
▁Estr	-10282
▁pareg	-10283
▁pentsa	-10284
▁Auzitegiak	-10285
ted	-10286
▁leih	-10287
▁Eskerrik	-10288
▁Mi	-10289
▁Ler	-10290
▁bazuten	-10291
entzial	-10292
ör	-10293
apur	-10294
orreko	-10295
▁biluz	-10296
▁artifizial	-10297
▁haietako	-10298
▁poliziak	-10299
▁Sto	-10300
umb	-10301
▁AL	-10302
bidu	-10303
▁onean	-10304
▁hauteskundeen	-10305
........	-10306
adorea	-10307
▁lanbide	-10308
▁prof	-10309
atzerakoan	-10310
▁Gorpu	-10311
▁indarrek	-10312
▁Kolonbiako	-10313
elles	-10314
▁hurbiltzen	-10315
▁nabarmenak	-10316
▁propio	-10317
gram	-10318
▁iza	-10319
▁gainditzen	-10320
ioren	-10321
aurrean	-10322
▁desberdinetan	-10323
▁arina	-10324
itsu	-10325
▁segitzen	-10326
▁batezbeste	-10327
▁errepikatu	-10328
iklop	-10329
▁Gabon	-10330
▁izenpe	-10331
▁gauzatzeko	-10332
ivod	-10333
▁gudu	-10334
▁dantzari	-10335
▁espiritu	-10336
▁gehiegizko	-10337
Baina	-10338
▁Felix	-10339
▁Funts	-10340
▁konplexua	-10341
▁daitezkeela	-10342
erat	-10343
▁kaz	-10344
▁Greziako	-10345
▁Muj	-10346
dro	-10347
▁VIII	-10348
▁baliteke	-10349
▁moldatu	-10350
▁Hit	-10351
▁minutuko	-10352
▁Fri	-10353
▁ardo	-10354
▁lantzeko	-10355
▁erreakzio	-10356
▁itsasontzi	-10357
▁jel	-10358
▁Harreman	-10359
▁Pala	-10360
▁pasarte	-10361
▁konkista	-10362
▁Asia	-10363
▁foru	-10364
▁xurg	-10365
kiaren	-10366
▁modukoa	-10367
CI	-10368
▁direnez	-10369
▁protoko	-10370
▁azpiegitura	-10371
▁Bata	-10372
km	-10373
▁Dago	-10374
▁erreta	-10375
▁Konstan	-10376
toi	-10377
▁egoitzan	-10378
▁Kongresuan	-10379
▁arrunt	-10380
▁urteurrena	-10381
araino	-10382
▁Klima	-10383
▁eroso	-10384
▁gailendu	-10385
▁apezp	-10386
▁ederki	-10387
▁garaik	-10388
▁zibila	-10389
rike	-10390
▁eri	-10391
▁estand	-10392
▁Au	-10393
ogia	-10394
▁Iba	-10395
▁beld	-10396
▁baxua	-10397
▁Horrelako	-10398
▁errepublik	-10399
sal	-10400
koaren	-10401
Gu	-10402
ji	-10403
gh	-10404
▁zoz	-10405
▁serb	-10406
abanako	-10407
usen	-10408
akunde	-10409
▁voivod	-10410
▁burutzen	-10411
▁positiboa	-10412
▁let	-10413
▁itzulia	-10414
ikeria	-10415
RIA	-10416
rit	-10417
▁Burgos	-10418
▁printzipio	-10419
▁kongres	-10420
▁ahaleginak	-10421
▁etzi	-10422
▁Berriak	-10423
▁lizentzia	-10424
iora	-10425
▁dizkie	-10426
▁mailara	-10427
▁Herritik	-10428
▁dezaketen	-10429
▁sozialista	-10430
▁opos	-10431
▁Steph	-10432
▁zeintz	-10433
▁Madrilek	-10434
▁mobilizazio	-10435
▁pareko	-10436
▁seri	-10437
ekonom	-10438
▁ohikoak	-10439
▁eramatea	-10440
▁estatuaren	-10441
umentuak	-10442
▁Asturias	-10443
mita	-10444
▁azuk	-10445
▁mex	-10446
▁Askotan	-10447
▁gaitzat	-10448
▁Literatur	-10449
▁Albert	-10450
▁ontzat	-10451
▁merkatar	-10452
erd	-10453
▁estatubatuarrak	-10454
▁Star	-10455
▁zatiak	-10456
▁Rol	-10457
Pol	-10458
▁Zigor	-10459
▁ateratako	-10460
▁populazio	-10461
▁eskumen	-10462
▁jaiak	-10463
▁darama	-10464
▁inbert	-10465
landeraz	-10466
▁ospitale	-10467
▁drama	-10468
▁Otegik	-10469
▁alkohol	-10470
▁senarra	-10471
▁batasuna	-10472
▁eskakizun	-10473
txoak	-10474
▁interesak	-10475
▁Ikastol	-10476
▁itxaron	-10477
Val	-10478
▁gudua	-10479
▁ordaintzeko	-10480
▁Esc	-10481
▁usti	-10482
▁Helburu	-10483
▁pedago	-10484
itxarrez	-10485
▁kontzej	-10486
▁erlazion	-10487
iat	-10488
▁deusez	-10489
etarikoa	-10490
▁heltzeko	-10491
▁akab	-10492
▁apal	-10493
▁kuan	-10494
▁sarean	-10495
▁Estatuak	-10496
▁murrizteko	-10497
udalerria	-10498
▁praktika	-10499
alizazioa	-10500
▁gozatzeko	-10501
Illinois	-10502
▁aurrekontua	-10503
dien	-10504
ikon	-10505
umin	-10506
izazioaren	-10507
izpa	-10508
▁Grand	-10509
▁Eskolan	-10510
▁Presidente	-10511
mad	-10512
▁Quin	-10513
▁Philip	-10514
▁Muñ	-10515
loven	-10516
▁Bela	-10517
▁suer	-10518
▁krimin	-10519
▁azalduko	-10520
▁fenomeno	-10521
oul	-10522
▁asteazkenean	-10523
elli	-10524
etsu	-10525
ibarrek	-10526
▁burujabe	-10527
▁estropada	-10528
▁elkartearen	-10529
ote	-10530
aririk	-10531
▁arrakast	-10532
ekipamendu	-10533
▁amorr	-10534
vic	-10535
▁Hed	-10536
▁Ta	-10537
rata	-10538
orden	-10539
urdin	-10540
▁klasikoa	-10541
▁Sevil	-10542
▁Euskaltel	-10543
▁antolatuta	-10544
▁zientifiko	-10545
▁Napole	-10546
▁dezente	-10547
▁Dantza	-10548
▁normala	-10549
▁pertsonai	-10550
▁kontrolatzeko	-10551
▁Chic	-10552
▁muin	-10553
▁gatazkaren	-10554
arraz	-10555
▁Irab	-10556
▁Tourra	-10557
▁distir	-10558
▁lehiakor	-10559
iso	-10560
stein	-10561
▁Pseud	-10562
rif	-10563
jordan	-10564
▁Kazet	-10565
▁Maila	-10566
▁planak	-10567
kortasun	-10568
▁jokabide	-10569
▁Pé	-10570
retako	-10571
▁Zibilaren	-10572
▁direlarik	-10573
utea	-10574
▁Châ	-10575
▁artzain	-10576
▁bezalaxe	-10577
▁Alc	-10578
▁euskarak	-10579
▁Pri	-10580
tzerik	-10581
▁Arrazo	-10582
▁zaindu	-10583
▁zorrotz	-10584
▁ikasketa	-10585
▁serio	-10586
▁dabiltza	-10587
Os	-10588
▁olinp	-10589
▁Jardun	-10590
▁izugarrizko	-10591
migr	-10592
Lehen	-10593
▁krom	-10594
▁Felipe	-10595
▁estiloa	-10596
▁gutxitu	-10597
ife	-10598
▁erakutsiko	-10599
tzep	-10600
▁Ins	-10601
▁ezberdinen	-10602
▁lukeen	-10603
▁araberakoa	-10604
▁egiteagatik	-10605
uli	-10606
tras	-10607
itoak	-10608
▁ariketa	-10609
▁tekniko	-10610
ologikoak	-10611
▁elektriko	-10612
▁errepidean	-10613
Col	-10614
nist	-10615
▁abiar	-10616
tsas	-10617
Madril	-10618
▁droga	-10619
zil	-10620
▁urre	-10621
▁hamaikako	-10622
▁euskalduna	-10623
▁gibel	-10624
ikazioa	-10625
...]	-10626
▁Brun	-10627
▁Barb	-10628
fl	-10629
▁pilotalek	-10630
eres	-10631
gald	-10632
ciones	-10633
▁Cos	-10634
▁Jim	-10635
▁begiak	-10636
▁gizakien	-10637
▁Arkitek	-10638
▁litzatekeela	-10639
▁komeni	-10640
EG	-10641
▁Jain	-10642
jok	-10643
▁sup	-10644
▁edukitzea	-10645
toren	-10646
proiek	-10647
▁taberna	-10648
▁gurasoen	-10649
▁batena	-10650
iem	-10651
pegi	-10652
▁hezur	-10653
▁eztanda	-10654
▁arduratu	-10655
▁eratorr	-10656
▁nekazari	-10657
▁gehiagoko	-10658
▁Sozialista	-10659
▁jarriz	-10660
▁jaitsiera	-10661
dola	-10662
itoa	-10663
▁Iberiar	-10664
▁kultural	-10665
▁potentzia	-10666
Gar	-10667
▁Aldeko	-10668
▁Langile	-10669
aide	-10670
ketarako	-10671
▁gran	-10672
arberr	-10673
▁mendiz	-10674
▁metrora	-10675
▁ingelesa	-10676
aiko	-10677
▁Rem	-10678
▁Domin	-10679
▁Halako	-10680
▁Ekainaren	-10681
▁Alder	-10682
▁murrizten	-10683
tada	-10684
▁Urd	-10685
▁porrota	-10686
▁sailkapena	-10687
pus	-10688
▁Horm	-10689
bek	-10690
▁Piz	-10691
▁Saras	-10692
▁produkzio	-10693
▁inguratzen	-10694
▁subirano	-10695
▁Sebastian	-10696
▁kantonamenduan	-10697
ium	-10698
▁zezan	-10699
▁Latino	-10700
AP	-10701
Bois	-10702
duera	-10703
▁Pers	-10704
▁Esper	-10705
entu	-10706
▁Garraio	-10707
▁antolaketa	-10708
▁Haatik	-10709
▁Estatutu	-10710
▁iraupena	-10711
▁sinesten	-10712
▁zaintzen	-10713
Hau	-10714
▁Kin	-10715
▁gene	-10716
▁Burdin	-10717
▁berrik	-10718
▁pilotari	-10719
obal	-10720
▁Ito	-10721
onimo	-10722
▁Julian	-10723
▁dituztelako	-10724
▁Li	-10725
▁Organ	-10726
▁bilkura	-10727
▁garaiera	-10728
▁kritikak	-10729
▁Joaqu	-10730
▁hautets	-10731
▁ordenagailu	-10732
shire	-10733
▁istripua	-10734
▁musk	-10735
▁eginkizun	-10736
▁Etxeberria	-10737
▁tentsio	-10738
ío	-10739
▁Ke	-10740
▁maitemin	-10741
▁bertsolari	-10742
gak	-10743
▁kapita	-10744
▁inaugur	-10745
▁antzerkia	-10746
▁erreporta	-10747
▁Sw	-10748
▁Txinan	-10749
▁iritziak	-10750
▁Etimologia	-10751
▁aldizkariaren	-10752
▁gordin	-10753
izatzen	-10754
▁egoerari	-10755
...).	-10756
irudien	-10757
▁Jud	-10758
▁honetatik	-10759
▁buz	-10760
▁Eibarko	-10761
▁ezezagun	-10762
▁?	-10763
cos	-10764
▁bermatu	-10765
▁betetako	-10766
▁Bin	-10767
▁Torne	-10768
CH	-10769
aritzaren	-10770
ENDU	-10771
rera	-10772
zina	-10773
▁Biko	-10774
▁Iraultza	-10775
▁Orkestra	-10776
▁nortasuna	-10777
▁gizonezkoen	-10778
▁US	-10779
aroan	-10780
▁bizira	-10781
▁ekoizle	-10782
yth	-10783
ores	-10784
▁Pasa	-10785
▁bezp	-10786
▁Loren	-10787
▁itsasoan	-10788
dr	-10789
didae	-10790
arraga	-10791
▁jauzi	-10792
▁Abenduaren	-10793
▁Elkartearen	-10794
▁unibertsitateko	-10795
▁kosta	-10796
▁zikin	-10797
▁kostaldeko	-10798
▁Plana	-10799
▁hilabetez	-10800
▁ezinik	-10801
▁frantsesa	-10802
▁azpitik	-10803
▁indigen	-10804
iot	-10805
▁We	-10806
▁Kale	-10807
▁Edozein	-10808
▁jaialdi	-10809
▁jarraiki	-10810
▁Lehenik	-10811
▁kritiko	-10812
▁Agur	-10813
▁Hein	-10814
▁proban	-10815
▁badakigu	-10816
▁Konstituzioa	-10817
einua	-10818
▁Elek	-10819
▁gehiagor	-10820
agon	-10821
dioa	-10822
terako	-10823
▁borondate	-10824
▁zientzialari	-10825
ández	-10826
▁Paulo	-10827
rey	-10828
Gazte	-10829
▁asper	-10830
ár	-10831
gabeak	-10832
▁Izend	-10833
▁pobrez	-10834
▁Durangoko	-10835
▁BER	-10836
▁Horixe	-10837
▁Teresa	-10838
▁Errib	-10839
ose	-10840
▁efektu	-10841
▁prozesuak	-10842
▁Zis	-10843
ics	-10844
▁Fron	-10845
oetako	-10846
▁Espezieak	-10847
▁aurkezpena	-10848
tam	-10849
atsi	-10850
egik	-10851
▁pod	-10852
iraren	-10853
utbola	-10854
▁kokatutako	-10855
ganako	-10856
▁entzule	-10857
▁eguerdian	-10858
▁aurrerapaus	-10859
menaren	-10860
▁publikoan	-10861
▁kontinente	-10862
DO	-10863
Ald	-10864
iboak	-10865
▁Viet	-10866
▁Uztailaren	-10867
▁txapelketako	-10868
▁human	-10869
▁jaurt	-10870
▁salatzen	-10871
▁itxaropena	-10872
▁mapa	-10873
▁kirola	-10874
▁eraikia	-10875
▁lapurre	-10876
▁erlijios	-10877
▁tenperatur	-10878
epa	-10879
ekeit	-10880
▁doinu	-10881
▁manip	-10882
Era	-10883
▁Koordin	-10884
▁Hasierako	-10885
▁Na	-10886
▁onez	-10887
eville	-10888
▁pauso	-10889
▁nolako	-10890
tsoa	-10891
▁indibidu	-10892
erv	-10893
▁album	-10894
▁hedapen	-10895
▁Kalifornia	-10896
▁materialak	-10897
▁Arantz	-10898
▁hiritik	-10899
▁jardunaldia	-10900
itezen	-10901
tzarekin	-10902
▁honakoa	-10903
lear	-10904
▁irreg	-10905
▁gurekin	-10906
▁bakoitzari	-10907
,"	-10908
▁urratsa	-10909
▁Amerikan	-10910
▁bihurtuko	-10911
gl	-10912
non	-10913
▁Elorr	-10914
▁buruaren	-10915
▁Interneten	-10916
▁Federazioak	-10917
bra	-10918
▁Prim	-10919
▁izenaz	-10920
▁ahozko	-10921
▁perfek	-10922
▁Herrizaingo	-10923
▁etorritako	-10924
ring	-10925
▁hiztun	-10926
▁askorik	-10927
▁Bildu	-10928
▁irain	-10929
▁zaitez	-10930
▁artearen	-10931
▁maitasuna	-10932
oreak	-10933
▁Nazionalaren	-10934
▁Holly	-10935
▁Plata	-10936
▁Atlant	-10937
▁neurtzen	-10938
▁monumentu	-10939
▁hondakinak	-10940
ehun	-10941
▁Glob	-10942
lazioa	-10943
alla	-10944
iang	-10945
izek	-10946
Cl	-10947
▁Tw	-10948
▁Ekintza	-10949
▁ingurukoa	-10950
▁gorputzaren	-10951
▁dizkigu	-10952
▁Monteneg	-10953
▁betetzea	-10954
▁Obra	-10955
▁eskail	-10956
▁heziketa	-10957
▁salmenta	-10958
▁erlojup	-10959
▁minutuan	-10960
EAJ	-10961
▁Var	-10962
▁salgai	-10963
▁gaituzte	-10964
oman	-10965
denak	-10966
▁Erraz	-10967
▁Saso	-10968
isteak	-10969
darra	-10970
▁berbera	-10971
▁sekretu	-10972
▁ukitu	-10973
▁ordezkaria	-10974
kl	-10975
Iowa	-10976
▁origin	-10977
▁Tar	-10978
opean	-10979
▁haiekin	-10980
▁osasuna	-10981
▁hiltzeko	-10982
▁neurketa	-10983
▁Sud	-10984
▁neure	-10985
▁lehiatu	-10986
▁estatuak	-10987
▁kontrolpean	-10988
▁sulf	-10989
▁hegal	-10990
▁premia	-10991
tzuk	-10992
leh	-10993
▁Ton	-10994
▁Zortzi	-10995
▁besteen	-10996
▁konstituzio	-10997
▁agiria	-10998
▁kapitu	-10999
▁Lee	-11000
▁Zip	-11001
▁handikoa	-11002
▁eskaintzeko	-11003
)"	-11004
alem	-11005
tzez	-11006
▁Mexikon	-11007
▁animaliak	-11008
çois	-11009
▁Alvar	-11010
▁zizki	-11011
▁mendian	-11012
txeb	-11013
▁Not	-11014
ilaria	-11015
▁talka	-11016
▁fiskalak	-11017
▁antzokian	-11018
orrela	-11019
▁hanka	-11020
▁azpieg	-11021
▁koaliz	-11022
haus	-11023
▁probak	-11024
▁aurkakoa	-11025
▁banatuko	-11026
▁Egunkaria	-11027
▁aitortzen	-11028
▁politikak	-11029
nek	-11030
ubr	-11031
acional	-11032
▁kantuak	-11033
▁faborito	-11034
▁gehienez	-11035
▁modernoa	-11036
▁prentsaurrekoan	-11037
▁sorturiko	-11038
▁fanta	-11039
▁konstan	-11040
▁aberatsa	-11041
▁hiriburuko	-11042
▁itsasoaren	-11043
▁politikoan	-11044
atzerik	-11045
▁Bushek	-11046
▁gehiag	-11047
▁kirolari	-11048
Ohio	-11049
▁Ando	-11050
▁Klas	-11051
Br	-11052
cc	-11053
erok	-11054
▁You	-11055
▁pertsonal	-11056
▁aukeratzen	-11057
▁lukeela	-11058
▁auzitegi	-11059
▁zarete	-11060
▁hamalau	-11061
▁kentzea	-11062
▁erkidego	-11063
ideek	-11064
▁Adin	-11065
riborro	-11066
▁hegoaldera	-11067
▁Ingen	-11068
▁Renania	-11069
▁irakurle	-11070
▁basamortu	-11071
egite	-11072
▁balira	-11073
etikoak	-11074
▁dantzan	-11075
Ro	-11076
atem	-11077
▁Sai	-11078
▁Kil	-11079
▁Karraskarien	-11080
▁elast	-11081
tasunarekin	-11082
▁askatasunaren	-11083
▁bed	-11084
▁Santu	-11085
▁irizp	-11086
▁"(	-11087
▁Lot	-11088
▁Dion	-11089
▁Museoa	-11090
▁Amerika	-11091
▁munduaren	-11092
▁Final	-11093
▁hobeak	-11094
▁definitu	-11095
▁agerraldian	-11096
▁Gerr	-11097
▁laguna	-11098
▁osagarri	-11099
▁Abuztuaren	-11100
txeak	-11101
▁abiadur	-11102
▁bueltan	-11103
▁darabil	-11104
AG	-11105
▁margolan	-11106
▁jarduna	-11107
▁Sum	-11108
▁gogoko	-11109
▁erakundeko	-11110
▁International	-11111
argi	-11112
▁Ikaste	-11113
▁geldituko	-11114
▁semeak	-11115
)»."	-11116
▁Zenbat	-11117
▁aurpegia	-11118
uzin	-11119
▁Mill	-11120
▁aurkezpen	-11121
▁eskuragarri	-11122
▁hank	-11123
▁markagail	-11124
▁emakumearen	-11125
Bilbo	-11126
dearen	-11127
azak	-11128
▁minbizia	-11129
▁zerbitzuen	-11130
sail	-11131
osaur	-11132
▁Bron	-11133
▁hosto	-11134
ailehen	-11135
▁tortur	-11136
▁kazetaria	-11137
amin	-11138
▁zantz	-11139
▁ekingo	-11140
▁Kaliforniako	-11141
▁Katalunian	-11142
mentuan	-11143
▁Ondarr	-11144
▁konplexu	-11145
▁protestan	-11146
olen	-11147
▁Telefon	-11148
▁Azaroaren	-11149
▁mintzo	-11150
▁ikuspegia	-11151
▁funtsezkoa	-11152
arac	-11153
▁Bule	-11154
▁High	-11155
▁Puer	-11156
▁erresuma	-11157
▁sua	-11158
olamendu	-11159
▁Lohizun	-11160
▁Suk	-11161
tziko	-11162
liburu	-11163
▁Euren	-11164
▁Orden	-11165
▁metod	-11166
▁bultzada	-11167
▁izendapena	-11168
itxo	-11169
▁marraz	-11170
▁Normandia	-11171
▁Aba	-11172
▁lil	-11173
ifest	-11174
agunak	-11175
▁Azter	-11176
▁Kaf	-11177
▁gehitzen	-11178
▁zihoazen	-11179
▁Afganistango	-11180
▁nabari	-11181
▁estaltzen	-11182
▁zintzilik	-11183
uneak	-11184
▁gorak	-11185
▁https	-11186
▁erreferendum	-11187
▁Pil	-11188
▁nora	-11189
▁Beran	-11190
▁diozu	-11191
▁Hitzarmen	-11192
guez	-11193
agirre	-11194
▁Agian	-11195
▁Badak	-11196
▁misio	-11197
Cor	-11198
ues	-11199
▁Valle	-11200
▁Gregor	-11201
▁tximeleta	-11202
▁Jur	-11203
bestez	-11204
▁bolun	-11205
inakako	-11206
▁Zorion	-11207
▁Txirrindu	-11208
istikoa	-11209
▁jokoak	-11210
▁natura	-11211
▁kazetariak	-11212
gaz	-11213
▁Res	-11214
▁zuriak	-11215
▁hirugarrena	-11216
jea	-11217
▁Marie	-11218
▁kodea	-11219
▁dezala	-11220
▁ustetan	-11221
▁Erakundeko	-11222
fob	-11223
▁Huss	-11224
▁Sizil	-11225
▁diotela	-11226
▁kontsulta	-11227
▁neurtzeko	-11228
▁aurrerapen	-11229
ikop	-11230
▁nerbio	-11231
▁Armadaren	-11232
▁bizimodua	-11233
▁DNA	-11234
orretan	-11235
mod	-11236
▁balizko	-11237
▁feminista	-11238
▁irabaziko	-11239
▁izenburua	-11240
Tra	-11241
▁Dubl	-11242
▁Zuzenbide	-11243
dos	-11244
▁[...]	-11245
▁daraman	-11246
▁abentura	-11247
IP	-11248
oli	-11249
oux	-11250
guru	-11251
▁banda	-11252
▁Artikulu	-11253
toreen	-11254
▁kasuak	-11255
▁Bestela	-11256
▁Israelen	-11257
OL	-11258
▁orto	-11259
▁tarteko	-11260
▁Mazed	-11261
▁gailu	-11262
▁igorri	-11263
zikl	-11264
▁Lip	-11265
Iruñ	-11266
▁tera	-11267
▁irudiko	-11268
-,	-11269
▁Mars	-11270
▁hustu	-11271
▁korrika	-11272
▁herrialdean	-11273
▁tanto	-11274
Mich	-11275
▁Hamab	-11276
▁voivoderriko	-11277
▁Goog	-11278
▁Nego	-11279
itatik	-11280
▁enbor	-11281
▁deialdi	-11282
ear	-11283
▁absolut	-11284
▁euskaldunen	-11285
▁irekiko	-11286
▁sustatzen	-11287
▁Bob	-11288
▁askea	-11289
▁azoka	-11290
ategian	-11291
▁alternatiba	-11292
▁mugimenduaren	-11293
▁Black	-11294
▁bertar	-11295
▁ezizen	-11296
die	-11297
▁ka	-11298
▁Hans	-11299
▁orrialde	-11300
▁mi	-11301
atzail	-11302
ungari	-11303
▁Gataz	-11304
ribarre	-11305
▁Bill	-11306
▁Konstituzional	-11307
Ag	-11308
Ale	-11309
▁Fra	-11310
▁Urtero	-11311
▁ikusirik	-11312
▁van	-11313
▁hartua	-11314
▁Inperio	-11315
▁irakurr	-11316
▁niretzat	-11317
▁Serg	-11318
irac	-11319
▁lotua	-11320
▁Hezkuntzako	-11321
▁Chav	-11322
▁Jane	-11323
▁nekez	-11324
iolog	-11325
tonen	-11326
▁Araz	-11327
▁estazio	-11328
▁Carolina	-11329
▁ikuspegitik	-11330
atikan	-11331
▁Maite	-11332
▁Vit	-11333
uburu	-11334
ularrak	-11335
▁Ross	-11336
▁kobr	-11337
▁Chris	-11338
▁urria	-11339
alariak	-11340
▁Laz	-11341
▁mehatxu	-11342
▁galtzeko	-11343
▁moldatzen	-11344
ebo	-11345
gintzan	-11346
▁Osasunak	-11347
▁Zerbitzu	-11348
Gaur	-11349
▁axola	-11350
▁anaiak	-11351
▁Etorkizun	-11352
▁osoak	-11353
▁Beherea	-11354
▁dizkiete	-11355
▁jauregian	-11356
▁fot	-11357
▁Mosk	-11358
▁baliatuz	-11359
olaren	-11360
▁korapil	-11361
▁esparruan	-11362
itazio	-11363
▁karte	-11364
▁model	-11365
▁Ogasun	-11366
▁legezko	-11367
▁iraunkorra	-11368
Nire	-11369
▁Patr	-11370
▁beteriko	-11371
▁izateari	-11372
▁aurreikusi	-11373
▁eraikitzea	-11374
▁eztabaidatu	-11375
roko	-11376
indar	-11377
▁Espainiar	-11378
EKO	-11379
urs	-11380
▁belar	-11381
▁sarrask	-11382
▁jarrerak	-11383
▁palestinarren	-11384
aix	-11385
▁hastea	-11386
▁berririk	-11387
▁→	-11388
guneak	-11389
▁hotza	-11390
▁argazkia	-11391
▁zaharberr	-11392
▁Frantziaren	-11393
▁fl	-11394
ezur	-11395
▁Tomas	-11396
▁berriari	-11397
tatuz	-11398
▁zapaldu	-11399
▁neurrian	-11400
ali	-11401
▁AS	-11402
▁Begoña	-11403
▁galduta	-11404
▁aukeratzeko	-11405
▁Basaur	-11406
▁museoa	-11407
▁Autonom	-11408
▁Igandean	-11409
▁bultzatzea	-11410
▁Zaldi	-11411
▁polts	-11412
▁torne	-11413
▁berdindu	-11414
▁euskarri	-11415
▁zendu	-11416
▁Mailan	-11417
▁norberaren	-11418
fak	-11419
▁Moham	-11420
▁osteko	-11421
oaz	-11422
ieux	-11423
berri	-11424
▁Xabi	-11425
onaren	-11426
asei	-11427
abar	-11428
▁Smith	-11429
▁guardia	-11430
▁zenaren	-11431
tzailearen	-11432
▁itxurako	-11433
erritarren	-11434
▁abeltzain	-11435
trol	-11436
turan	-11437
▁Korn	-11438
▁berea	-11439
ube	-11440
well	-11441
▁Zes	-11442
▁erta	-11443
▁ospe	-11444
Palatin	-11445
▁Ikasle	-11446
▁transm	-11447
▁salbuespen	-11448
Erre	-11449
▁Antso	-11450
▁Ordutik	-11451
▁generoa	-11452
▁Apirilaren	-11453
els	-11454
▁Bud	-11455
akide	-11456
▁emit	-11457
▁argiak	-11458
▁Hilabete	-11459
Estatu	-11460
▁ahizpa	-11461
▁erradik	-11462
▁ikastaro	-11463
▁entrenatzen	-11464
▁Boz	-11465
aritzako	-11466
▁ofizialak	-11467
▁Alons	-11468
▁gorpua	-11469
▁IS	-11470
ezinak	-11471
iketak	-11472
▁aldeak	-11473
▁deskon	-11474
▁gizonen	-11475
▁Suedi	-11476
▁egindakoa	-11477
ahar	-11478
souri	-11479
baldin	-11480
▁Frantses	-11481
▁Zisjordan	-11482
▁Izar	-11483
▁Turkiako	-11484
▁biztanleriaren	-11485
▁karbono	-11486
▁ikastaroak	-11487
moz	-11488
Hego	-11489
▁Gin	-11490
▁Zeb	-11491
▁fes	-11492
▁Mond	-11493
▁Kubako	-11494
▁antzem	-11495
▁diziplina	-11496
▁militante	-11497
PG	-11498
eguru	-11499
▁Kanadan	-11500
▁abstrak	-11501
▁Eman	-11502
▁Dantz	-11503
▁arrast	-11504
▁gunean	-11505
mia	-11506
zin	-11507
idur	-11508
tekoa	-11509
▁Emakumezkoen	-11510
▁sing	-11511
▁jakingo	-11512
▁samarra	-11513
▁kantx	-11514
▁sinte	-11515
▁substantzia	-11516
ene	-11517
▁Ax	-11518
giko	-11519
▁eskand	-11520
okatu	-11521
▁bozak	-11522
▁bizkor	-11523
tronomia	-11524
▁zeintzuk	-11525
Bai	-11526
▁karta	-11527
▁zedin	-11528
▁kokapena	-11529
lia	-11530
arrenak	-11531
laurden	-11532
▁Franco	-11533
▁mendiak	-11534
itzaileen	-11535
▁txikiena	-11536
mako	-11537
▁gris	-11538
▁Realeko	-11539
▁dugulako	-11540
cu	-11541
▁Plat	-11542
▁gozatu	-11543
▁Aldaketa	-11544
▁iren	-11545
egiako	-11546
▁bilakatzen	-11547
▁herrialdearen	-11548
▁batasun	-11549
▁jom	-11550
leren	-11551
▁sorgin	-11552
▁gaurkotu	-11553
▁udazkenean	-11554
pha	-11555
▁@:	-11556
▁Erron	-11557
▁katedra	-11558
▁zitezkeen	-11559
▁Errepublikaren	-11560
kos	-11561
asoa	-11562
▁Aralar	-11563
▁jarduten	-11564
▁hautagaiak	-11565
▁ebakuntza	-11566
▁ezetz	-11567
▁Hom	-11568
umurr	-11569
▁Entz	-11570
▁malgu	-11571
▁Langileen	-11572
kien	-11573
▁orduz	-11574
ituzten	-11575
▁botoen	-11576
▁ordurako	-11577
opo	-11578
▁behi	-11579
▁Babes	-11580
landes	-11581
▁Modern	-11582
▁Ituna	-11583
▁NBEko	-11584
▁intents	-11585
▁itzultzea	-11586
▁Denboraldi	-11587
▁ezagutzera	-11588
mendia	-11589
▁Entren	-11590
▁Batzordea	-11591
axo	-11592
nis	-11593
degian	-11594
▁Inperioa	-11595
▁ohiaren	-11596
▁Fres	-11597
▁poes	-11598
▁Epait	-11599
▁unibertsitatean	-11600
mok	-11601
wan	-11602
▁Lanak	-11603
▁doazen	-11604
▁fasean	-11605
▁izendatua	-11606
▁suedi	-11607
▁sakr	-11608
▁aurrelari	-11609
▁elektrikoa	-11610
▁orien	-11611
▁Jakina	-11612
▁dohain	-11613
▁ideologia	-11614
Palatinatua	-11615
▁izanagatik	-11616
▁Matx	-11617
▁Ezkon	-11618
▁senar	-11619
▁goitik	-11620
fen	-11621
ther	-11622
▁gezur	-11623
▁herrietako	-11624
▁talib	-11625
▁ontziak	-11626
AF	-11627
▁Tay	-11628
gaiak	-11629
▁Ricardo	-11630
▁saltoki	-11631
▁emate	-11632
▁exeku	-11633
▁onddo	-11634
▁Island	-11635
▁igotzeko	-11636
▁hazkundea	-11637
tarrek	-11638
▁Valver	-11639
▁abertzalearen	-11640
errira	-11641
▁Aranburu	-11642
nia	-11643
Co	-11644
▁Elis	-11645
▁esanahia	-11646
▁bitartekoak	-11647
▁map	-11648
▁EITB	-11649
▁Guraso	-11650
▁Mariano	-11651
EC	-11652
erarako	-11653
▁Santur	-11654
▁artistiko	-11655
▁sustatzea	-11656
▁aplikatzen	-11657
Bas	-11658
ahal	-11659
opus	-11660
▁Arrat	-11661
erson	-11662
iento	-11663
▁Migel	-11664
▁mineral	-11665
▁aspaldiko	-11666
Re	-11667
▁eskua	-11668
adibidez	-11669
▁aitzakia	-11670
▁ditzakegu	-11671
▁garagardo	-11672
▁eskoz	-11673
▁greko	-11674
▁itsasoa	-11675
▁hobetzen	-11676
tinazional	-11677
▁ditzakeen	-11678
osp	-11679
▁bukatzeko	-11680
mi	-11681
ilek	-11682
▁portaera	-11683
▁gainbehera	-11684
▁kosm	-11685
▁Legeak	-11686
▁bertik	-11687
▁Aralarrek	-11688
▁oinarrian	-11689
▁estan	-11690
▁Armstr	-11691
roc	-11692
istei	-11693
iengatik	-11694
▁Zuzendaritza	-11695
has	-11696
doki	-11697
▁altuena	-11698
▁ahoskatua	-11699
Car	-11700
▁Guad	-11701
▁Colleg	-11702
▁susper	-11703
▁irekita	-11704
kat	-11705
▁biziki	-11706
▁plastiko	-11707
itzarekin	-11708
▁ailegatu	-11709
▁indarren	-11710
▁Reg	-11711
itasunak	-11712
▁egokiena	-11713
▁harturik	-11714
alan	-11715
tran	-11716
▁Est	-11717
▁Goñi	-11718
▁Aires	-11719
▁armadak	-11720
▁partekatu	-11721
▁argitaratua	-11722
txon	-11723
▁Aus	-11724
▁Aren	-11725
istari	-11726
▁beherako	-11727
▁menderatu	-11728
▁Pep	-11729
▁Roc	-11730
▁gakoa	-11731
▁edukia	-11732
▁Horrekin	-11733
vre	-11734
▁Gl	-11735
▁Nev	-11736
▁kax	-11737
▁telebistako	-11738
▁ongiz	-11739
alizatu	-11740
▁erritm	-11741
▁kapitain	-11742
▁ERC	-11743
aritzak	-11744
▁desados	-11745
▁zibilak	-11746
▁ekarpena	-11747
▁idatzita	-11748
▁Herriburua	-11749
Bi	-11750
OM	-11751
▁Deustuko	-11752
▁errespetatu	-11753
AC	-11754
▁apala	-11755
▁immun	-11756
▁luzez	-11757
▁epaitu	-11758
▁AN	-11759
▁NAS	-11760
▁aholk	-11761
▁denaren	-11762
▁zirkuitu	-11763
▁ibiltzeko	-11764
▁prezioak	-11765
▁gaineratzen	-11766
▁Lurra	-11767
▁egokitzen	-11768
▁laguntzea	-11769
▁oposizioko	-11770
▁sil	-11771
.«	-11772
ús	-11773
abeth	-11774
▁desagerr	-11775
▁kopuruak	-11776
▁eski	-11777
▁begirada	-11778
ough	-11779
▁Aldizk	-11780
▁jorratu	-11781
▁badituzte	-11782
▁Athleticen	-11783
inoa	-11784
▁Alfonso	-11785
▁eskaria	-11786
▁dituz	-11787
▁kopia	-11788
▁kontur	-11789
guzt	-11790
idge	-11791
▁moderno	-11792
▁elemen	-11793
▁jaisten	-11794
▁ibilbidearen	-11795
viako	-11796
▁Ball	-11797
▁Asanb	-11798
▁Mallor	-11799
▁Astelehen	-11800
torio	-11801
▁urez	-11802
▁emanda	-11803
▁Jackson	-11804
alifornia	-11805
▁Gug	-11806
▁Jaio	-11807
mailako	-11808
▁German	-11809
▁kateak	-11810
▁ebazpen	-11811
▁Mario	-11812
▁jauna	-11813
Daturen	-11814
merkatu	-11815
zerbitz	-11816
▁kolorekoa	-11817
▁elektroniko	-11818
▁Herbehereetako	-11819
▁krisia	-11820
▁dizkiote	-11821
entzunezko	-11822
▁Erakundearen	-11823
▁Ikusi	-11824
▁instal	-11825
▁Salaman	-11826
▁irekitzen	-11827
▁murrizketa	-11828
▁apaindegiak	-11829
▁son	-11830
▁testig	-11831
▁azalpenak	-11832
▁jorratzen	-11833
tazioaren	-11834
gik	-11835
▁epaitegi	-11836
▁historiaren	-11837
▁orokorrak	-11838
das	-11839
▁bukatzen	-11840
▁Ahal	-11841
▁Garzonek	-11842
▁nahasketa	-11843
itro	-11844
▁Rhin	-11845
▁lodi	-11846
▁Aukera	-11847
▁ontzia	-11848
▁edukiak	-11849
▁ikustera	-11850
vie	-11851
▁bolada	-11852
▁argudio	-11853
▁motak	-11854
▁aurkikuntza	-11855
▁↑	-11856
▁Big	-11857
▁europar	-11858
uso	-11859
lota	-11860
▁Hama	-11861
▁pista	-11862
gues	-11863
▁inola	-11864
▁neurtu	-11865
▁paralel	-11866
▁ministroaren	-11867
▁IX	-11868
▁mac	-11869
baina	-11870
▁egunera	-11871
▁batzuetako	-11872
▁Rosa	-11873
erakada	-11874
mentuaren	-11875
▁onik	-11876
▁suiz	-11877
▁asteko	-11878
▁urratzen	-11879
▁gerrikoan	-11880
ienne	-11881
▁(...)	-11882
▁Lanbide	-11883
▁Proiektu	-11884
Uren	-11885
▁Gobi	-11886
▁gastu	-11887
▁eragotzi	-11888
▁eratzeko	-11889
▁eskaerak	-11890
▁Madrilera	-11891
atom	-11892
▁aktiboa	-11893
▁txikiko	-11894
▁Ingalaterran	-11895
▁Bagd	-11896
▁Jatorrizko	-11897
▁;	-11898
▁Rev	-11899
▁modal	-11900
▁Aragoiko	-11901
giak	-11902
▁Hay	-11903
▁Jeff	-11904
▁olerk	-11905
▁Tolosa	-11906
▁galduko	-11907
▁herrialdeak	-11908
ami	-11909
▁lurzor	-11910
▁bederen	-11911
plaz	-11912
▁Rafa	-11913
▁Oinarrizko	-11914
▁eleberrian	-11915
▁mantentzea	-11916
ove	-11917
pat	-11918
▁jun	-11919
▁Zibila	-11920
▁jaurti	-11921
▁modelo	-11922
▁iristea	-11923
▁piano	-11924
▁egokitzeko	-11925
Min	-11926
▁adiera	-11927
▁martxa	-11928
inda	-11929
ideko	-11930
▁pais	-11931
▁jabea	-11932
▁ibiliko	-11933
▁diplomat	-11934
▁erabilia	-11935
RZ	-11936
presa	-11937
▁entzuteko	-11938
▁arratsalde	-11939
▁zirriborro	-11940
atsa	-11941
▁Gram	-11942
▁Musik	-11943
▁eskala	-11944
▁Esteban	-11945
▁ematera	-11946
▁galderak	-11947
▁helarazi	-11948
▁orkestra	-11949
▁herrialdeen	-11950
chy	-11951
▁Iruj	-11952
▁Gaztela	-11953
▁ziguten	-11954
▁hastapen	-11955
▁partidetan	-11956
Ne	-11957
▁Hum	-11958
▁Birj	-11959
▁India	-11960
▁konda	-11961
▁alferrik	-11962
▁kasuetan	-11963
▁defendatzeko	-11964
lidae	-11965
▁ohitur	-11966
▁Japonia	-11967
▁austral	-11968
▁soldaduak	-11969
dei	-11970
▁atzem	-11971
idearen	-11972
IF	-11973
▁Cav	-11974
▁Diez	-11975
▁Moren	-11976
▁abestu	-11977
▁Batasunean	-11978
▁Kontseiluaren	-11979
▁Edward	-11980
▁direnen	-11981
▁webgunean	-11982
▁lehentasun	-11983
▁alemaniarrak	-11984
▁EZ	-11985
▁Atu	-11986
▁Blu	-11987
▁biok	-11988
▁paisaia	-11989
ilus	-11990
▁entsegu	-11991
▁ekarpenak	-11992
utro	-11993
orrena	-11994
▁badio	-11995
▁dezakeela	-11996
daren	-11997
▁aldekoak	-11998
▁saihestu	-11999
▁Mé	-12000
▁kum	-12001
▁Gaixo	-12002
▁aisial	-12003
▁Zubero	-12004
▁itzela	-12005
▁Sanchez	-12006
And	-12007
ialde	-12008
ls	-12009
▁Tun	-12010
▁Argentina	-12011
▁gertatutakoa	-12012
▁bin	-12013
▁Haiz	-12014
▁deitutako	-12015
▁ohol	-12016
ett	-12017
▁EP	-12018
▁Zan	-12019
atoki	-12020
teari	-12021
▁ditzaten	-12022
▁Vo	-12023
▁Lomb	-12024
▁bitxia	-12025
▁sendagil	-12026
▁aurkezpenean	-12027
▁base	-12028
atarren	-12029
▁Gainerako	-12030
alb	-12031
udad	-12032
▁jatorriko	-12033
▁udalerriaren	-12034
itario	-12035
▁hutsune	-12036
▁hamahiru	-12037
▁Bergarako	-12038
▁Eraso	-12039
▁Errusiak	-12040
▁jaiotako	-12041
▁Put	-12042
▁unea	-12043
▁Irudi	-12044
▁Durang	-12045
enz	-12046
▁aurrerako	-12047
▁oinordeko	-12048
dorf	-12049
tonek	-12050
▁Mitxel	-12051
▁haurra	-12052
▁Ibilbide	-12053
▁indartzeko	-12054
urrek	-12055
▁Long	-12056
▁rola	-12057
▁autoak	-12058
lano	-12059
orain	-12060
▁olio	-12061
adurak	-12062
▁komik	-12063
▁Vuel	-12064
toaren	-12065
▁sostengua	-12066
queta	-12067
tarra	-12068
▁diela	-12069
▁Irlanda	-12070
ston	-12071
▁Prozesu	-12072
▁kategoria	-12073
▁lagunduta	-12074
oss	-12075
▁Uro	-12076
▁maita	-12077
▁kokapen	-12078
▁nabaria	-12079
▁pairatu	-12080
▁Eibarren	-12081
▁hidrogen	-12082
▁kup	-12083
▁hauei	-12084
▁Jordan	-12085
▁mailatik	-12086
zuz	-12087
iario	-12088
▁bidera	-12089
▁kontseilari	-12090
▁birtu	-12091
▁aurrea	-12092
rie	-12093
egir	-12094
▁Pac	-12095
▁Julen	-12096
▁zebilen	-12097
▁camp	-12098
istekin	-12099
▁jabetu	-12100
▁egunkarian	-12101
anzko	-12102
▁abis	-12103
▁Mames	-12104
▁Jazz	-12105
▁berau	-12106
▁Grande	-12107
▁Ky	-12108
txob	-12109
▁tipoa	-12110
▁kudeatzeko	-12111
▁Din	-12112
▁hes	-12113
▁Santo	-12114
▁zabor	-12115
▁enpresari	-12116
magn	-12117
▁galtzea	-12118
▁abeslaria	-12119
▁osaturiko	-12120
▁Parlamentuko	-12121
▁Altz	-12122
▁Geltokia	-12123
ileak	-12124
▁Loir	-12125
▁absten	-12126
▁biltzea	-12127
▁gimnas	-12128
tasunerako	-12129
UZENDU	-12130
▁Etxea	-12131
▁emanen	-12132
▁Tony	-12133
▁basel	-12134
▁partzial	-12135
▁Fen	-12136
erena	-12137
▁Hussein	-12138
▁egiazko	-12139
▁hilabet	-12140
Ph	-12141
▁Brown	-12142
▁herriari	-12143
▁pelikula	-12144
▁diskrimin	-12145
aze	-12146
▁Pel	-12147
▁konpontzen	-12148
▁Batzordearen	-12149
auz	-12150
omor	-12151
▁Belok	-12152
▁alboko	-12153
▁iturriek	-12154
▁arn	-12155
▁hausn	-12156
▁hilob	-12157
▁zituelako	-12158
▁literaturaren	-12159
▁Yo	-12160
izar	-12161
▁administratiboa	-12162
bider	-12163
▁Kari	-12164
▁erradia	-12165
▁ezkutatu	-12166
▁norbaitek	-12167
▁gaztelania	-12168
▁ondorengoa	-12169
ope	-12170
adek	-12171
▁Ordez	-12172
▁Probintz	-12173
▁abiatzen	-12174
▁zuzenbide	-12175
▁bidalitako	-12176
ometro	-12177
▁Parlamentuan	-12178
▁norgehiagoka	-12179
kidea	-12180
▁Krista	-12181
▁Gurutze	-12182
alizazioaren	-12183
▁erritmoa	-12184
▁zalantzak	-12185
▁Kre	-12186
▁Heldu	-12187
▁Konfeder	-12188
▁asteetan	-12189
▁baztertzen	-12190
▁ang	-12191
▁klim	-12192
ekeria	-12193
▁lurraldeak	-12194
▁gaixotasuna	-12195
altasuna	-12196
▁hitzordua	-12197
▁jaialdian	-12198
ignac	-12199
retik	-12200
▁erans	-12201
▁berriki	-12202
laren	-12203
▁Beher	-12204
chester	-12205
aska	-12206
▁sur	-12207
antol	-12208
▁agindupean	-12209
▁iparraldera	-12210
Tex	-12211
dioan	-12212
▁Bake	-12213
alismo	-12214
▁diseinua	-12215
▁Laf	-12216
▁Margo	-12217
▁afera	-12218
▁gaeleraz	-12219
Mari	-12220
▁Far	-12221
▁Alavesek	-12222
▁definizio	-12223
▁ezezaguna	-12224
▁zuzenketa	-12225
▁programaren	-12226
▁Vin	-12227
▁ezagutuko	-12228
▁Jainkoaren	-12229
▁ast	-12230
ketari	-12231
▁honetara	-12232
▁Taldearen	-12233
▁Lasa	-12234
▁batentzat	-12235
PI	-12236
▁jaz	-12237
▁Mutr	-12238
iorako	-12239
ilariak	-12240
▁elikadura	-12241
▁alderantziz	-12242
▁).	-12243
enaren	-12244
▁Errenter	-12245
ennsylvania	-12246
▁Orokorrean	-12247
▁zapuz	-12248
▁irtenbidea	-12249
▁biol	-12250
▁Funtz	-12251
▁pankar	-12252
▁gauzatzen	-12253
agua	-12254
▁izatetik	-12255
▁Ev	-12256
aratu	-12257
tzetik	-12258
▁baitituzte	-12259
utan	-12260
▁Erlij	-12261
▁dialek	-12262
▁eraginik	-12263
▁bideratzen	-12264
ogra	-12265
▁Aizp	-12266
▁Egitura	-12267
▁Txosten	-12268
▁estatis	-12269
▁Rib	-12270
▁aztarna	-12271
▁Latinoamerik	-12272
onian	-12273
▁Mau	-12274
▁Tak	-12275
titate	-12276
▁Gonzal	-12277
▁Hiriko	-12278
▁software	-12279
ET	-12280
uaz	-12281
▁borrokak	-12282
▁uharteak	-12283
▁zirelarik	-12284
olfo	-12285
uenak	-12286
▁zutik	-12287
▁Zerrend	-12288
▁Mariaren	-12289
eti	-12290
BIRZ	-12291
ansas	-12292
▁Itun	-12293
▁oroi	-12294
▁halakorik	-12295
▁Kai	-12296
▁Arth	-12297
▁Mate	-12298
retuak	-12299
▁ezbeh	-12300
▁Lehiaketa	-12301
▁errespetua	-12302
▁instituzional	-12303
▁Zar	-12304
ime	-12305
▁Jimen	-12306
▁Lekeit	-12307
BIRZUZENDU	-12308
▁Jerusalem	-12309
▁Abu	-12310
▁Sul	-12311
▁iger	-12312
▁Taldeko	-12313
▁eguraldi	-12314
▁gidatzen	-12315
▁je	-12316
asser	-12317
▁inguruk	-12318
▁Ló	-12319
▁Etiketak	-12320
▁asmoarekin	-12321
OH	-12322
taine	-12323
▁farm	-12324
▁solid	-12325
oarekin	-12326
alaparta	-12327
▁Helburua	-12328
▁duelarik	-12329
torik	-12330
▁harrizko	-12331
▁kontutan	-12332
▁patro	-12333
▁proble	-12334
▁gainaz	-12335
▁jeneral	-12336
▁Euskarazko	-12337
▁nagusitasuna	-12338
ieb	-12339
▁Urre	-12340
▁mendiko	-12341
▁antzeman	-12342
▁jokalarien	-12343
lay	-12344
ibur	-12345
▁kutxa	-12346
▁minbiz	-12347
▁langabezia	-12348
▁Bizi	-12349
▁dakite	-12350
▁bezperan	-12351
▁Mediterrane	-12352
▁irabazlea	-12353
▁Unibertsitateak	-12354
mil	-12355
▁Gand	-12356
▁argud	-12357
▁segitu	-12358
▁Andra	-12359
▁Ts	-12360
▁mist	-12361
kideak	-12362
▁North	-12363
▁polon	-12364
▁ingeniari	-12365
pec	-12366
adia	-12367
bour	-12368
▁Ran	-12369
amako	-12370
▁baimendu	-12371
AD	-12372
erdia	-12373
▁Mala	-12374
▁dudarik	-12375
▁erdietsi	-12376
▁(+	-12377
▁Da	-12378
eskub	-12379
UT	-12380
▁Chapelle	-12381
▁iturburu	-12382
Oso	-12383
tarik	-12384
▁Abel	-12385
▁handiaren	-12386
aya	-12387
▁Simon	-12388
▁eremuak	-12389
▁dieten	-12390
ologiako	-12391
▁zuzenduta	-12392
▁sufri	-12393
▁aditua	-12394
▁gelditzeko	-12395
izea	-12396
seko	-12397
▁Irur	-12398
▁Beras	-12399
▁Catal	-12400
▁indarrez	-12401
▁Otsailaren	-12402
▁politikoek	-12403
▁bideratzeko	-12404
IT	-12405
tzaz	-12406
▁betea	-12407
▁gustatu	-12408
▁istorioak	-12409
arde	-12410
▁Jup	-12411
▁ekiteko	-12412
▁karl	-12413
▁diruz	-12414
▁egunkaria	-12415
egur	-12416
▁bestean	-12417
▁hemengo	-12418
▁saleros	-12419
▁lehiaketan	-12420
▁gatz	-12421
▁eskerrak	-12422
▁pasatzeko	-12423
▁interesgarri	-12424
▁Beas	-12425
▁Stra	-12426
aketen	-12427
▁Norvegiako	-12428
▁lehenengoa	-12429
▁›	-12430
▁(-	-12431
▁harik	-12432
▁ispil	-12433
▁hutsak	-12434
▁irteten	-12435
▁bihurtuz	-12436
ision	-12437
ostal	-12438
▁Oste	-12439
▁behartuta	-12440
Su	-12441
Ipar	-12442
▁Nep	-12443
▁Arri	-12444
▁loturik	-12445
ños	-12446
ather	-12447
▁pean	-12448
▁Ikusk	-12449
▁bagen	-12450
▁ikurr	-12451
▁aurkitzea	-12452
▁estreinako	-12453
stro	-12454
akzio	-12455
erbat	-12456
estatu	-12457
▁Dorre	-12458
▁apurtu	-12459
krip	-12460
▁Ebro	-12461
▁gazta	-12462
▁ezarriko	-12463
▁sistemat	-12464
▁Autob	-12465
▁sosteng	-12466
▁Roman	-12467
▁dudala	-12468
▁loturak	-12469
mal	-12470
▁Tut	-12471
▁umor	-12472
▁batzar	-12473
▁Alfontso	-12474
▁agintarien	-12475
?».	-12476
imil	-12477
▁koron	-12478
▁trip	-12479
▁Pello	-12480
▁txistu	-12481
▁Kontseilua	-12482
ray	-12483
okak	-12484
▁Elgo	-12485
▁erresum	-12486
▁Fe	-12487
▁panta	-12488
▁Telebista	-12489
ephalus	-12490
▁berriek	-12491
▁erantzule	-12492
▁konponbidea	-12493
sey	-12494
herri	-12495
urria	-12496
upa	-12497
▁EHN	-12498
▁ohiturak	-12499
▁gizarteari	-12500
▁negoziazioak	-12501
goi	-12502
▁Jokin	-12503
▁irlandar	-12504
▁handitzea	-12505
är	-12506
▁zileg	-12507
▁pribil	-12508
▁anitzeko	-12509
▁handitzeko	-12510
▁ikaragarria	-12511
▁Vasco	-12512
▁eskuak	-12513
▁guneak	-12514
▁publikoen	-12515
▁izendatzen	-12516
▁isuri	-12517
▁ditudan	-12518
▁lagunekin	-12519
▁ohorezko	-12520
▁zezakeen	-12521
▁berrogeita	-12522
▁bideoa	-12523
▁amaierako	-12524
▁abertzalea	-12525
tzap	-12526
▁ebatzi	-12527
▁Athleticeko	-12528
Bar	-12529
▁larre	-12530
▁tamain	-12531
reak	-12532
▁gustu	-12533
▁bikotea	-12534
pet	-12535
▁Orr	-12536
▁hodi	-12537
▁tranb	-12538
▁Sierra	-12539
▁enplegu	-12540
▁zitekeela	-12541
BH	-12542
▁Lew	-12543
▁denboraren	-12544
▁Edon	-12545
▁clear	-12546
▁artelan	-12547
▁iradoki	-12548
▁tropak	-12549
▁iraungo	-12550
▁Lapurdiko	-12551
▁egiaztatu	-12552
▁partikula	-12553
▁izp	-12554
▁igor	-12555
▁berdea	-12556
▁jauregi	-12557
▁errespetatzen	-12558
Go	-12559
any	-12560
ical	-12561
▁Polit	-12562
▁emanaldiak	-12563
teau	-12564
itter	-12565
oztik	-12566
▁akordi	-12567
▁sozialistak	-12568
eratze	-12569
tapena	-12570
dt	-12571
▁apustu	-12572
▁Nicolas	-12573
▁Berlingo	-12574
▁banatzeko	-12575
▁gogoz	-12576
▁iragarr	-12577
sonen	-12578
▁AEBen	-12579
▁Txill	-12580
▁israeld	-12581
▁guretzat	-12582
▁Abertzaleak	-12583
▁azkenaldian	-12584
▁ub	-12585
zion	-12586
organ	-12587
▁dekor	-12588
▁gizakia	-12589
▁gazteei	-12590
▁erakusketak	-12591
▁dituzue	-12592
▁jarraipen	-12593
▁Abia	-12594
▁Eremu	-12595
▁erdiak	-12596
toan	-12597
▁eskar	-12598
▁Japonian	-12599
lie	-12600
phy	-12601
▁katean	-12602
▁Jauregi	-12603
▁agintea	-12604
▁agiriak	-12605
▁entziklop	-12606
▁ikusgarri	-12607
Mont	-12608
▁Datuak	-12609
▁bietan	-12610
▁errazago	-12611
▁haurtzar	-12612
▁cor	-12613
▁gainezka	-12614
▁zazpigarren	-12615
errus	-12616
▁amaituta	-12617
ozo	-12618
▁Ainh	-12619
▁Jaime	-12620
▁plaka	-12621
▁ziurtag	-12622
chn	-12623
ouv	-12624
▁Karm	-12625
presio	-12626
▁ardatza	-12627
▁aztertzea	-12628
▁protagonistak	-12629
Kan	-12630
erna	-12631
etaraino	-12632
▁ostegun	-12633
Infob	-12634
Infobox	-12635
▁Munich	-12636
▁honakoak	-12637
hat	-12638
▁nengo	-12639
▁Kontxako	-12640
▁ikertzeko	-12641
▁mendiaren	-12642
ugua	-12643
aileen	-12644
▁urteren	-12645
▁zidaten	-12646
▁larrialdi	-12647
▁gordetzeko	-12648
xa	-12649
quez	-12650
▁anark	-12651
▁elizaren	-12652
▁askatzeko	-12653
imar	-12654
▁laran	-12655
▁formatu	-12656
▁aplikatu	-12657
▁jendeari	-12658
▁pip	-12659
gaitz	-12660
▁uniform	-12661
▁Gutxienez	-12662
▁erreferenduma	-12663
abr	-12664
▁Itzi	-12665
▁popula	-12666
▁kanpotik	-12667
▁zaintzeko	-12668
dila	-12669
▁Ziz	-12670
▁Eskualde	-12671
algo	-12672
▁Artx	-12673
▁arro	-12674
▁bikainak	-12675
▁Tap	-12676
▁Lake	-12677
▁ileg	-12678
▁eustea	-12679
▁igotzea	-12680
▁horrelakorik	-12681
duc	-12682
▁Naf	-12683
▁urriak	-12684
▁Austria	-12685
▁lehenbailehen	-12686
ross	-12687
▁dorrea	-12688
atutakoa	-12689
▁Zarauzko	-12690
▁egiturak	-12691
▁urteurren	-12692
▁kontraj	-12693
▁sentsibil	-12694
▁Tai	-12695
▁bizidun	-12696
▁sorkuntza	-12697
▁diotenez	-12698
▁parrokia	-12699
osc	-12700
tora	-12701
▁Amai	-12702
arteak	-12703
▁lesio	-12704
▁nintz	-12705
▁laburrak	-12706
▁hizkuntzen	-12707
iva	-12708
▁partidua	-12709
▁Rab	-12710
▁sas	-12711
▁direnek	-12712
▁molekula	-12713
▁denborald	-12714
Aleman	-12715
▁Printz	-12716
▁luzeko	-12717
kortasuna	-12718
▁beharrekoa	-12719
▁Komunikazio	-12720
unda	-12721
▁ETAko	-12722
▁Harana	-12723
▁onenen	-12724
▁soldaduek	-12725
bez	-12726
▁dagozkion	-12727
▁pilotalekuan	-12728
▁zientzialariek	-12729
▁derb	-12730
▁eraikinak	-12731
eriako	-12732
▁gorriak	-12733
▁behartzen	-12734
▁tradizionala	-12735
puntua	-12736
▁Matem	-12737
▁eragoz	-12738
▁Jaurlaritzari	-12739
▁oil	-12740
▁enbr	-12741
▁bilkuran	-12742
▁Jor	-12743
▁fasea	-12744
▁eledun	-12745
▁PSOEren	-12746
▁gobernuan	-12747
▁€	-12748
▁Cad	-12749
▁ust	-12750
▁Para	-12751
▁epean	-12752
▁hartz	-12753
▁Baztan	-12754
▁beteran	-12755
▁ereduak	-12756
zitanieraz	-12757
▁irribarre	-12758
▁honetarako	-12759
▁Clin	-12760
▁Saio	-12761
orek	-12762
▁pusk	-12763
▁hitzaldiak	-12764
▁gl	-12765
▁Fac	-12766
ilera	-12767
riarte	-12768
▁Selek	-12769
▁auzian	-12770
▁gasteiz	-12771
▁bihotzeko	-12772
▁atxiloketa	-12773
Laur	-12774
onimoa	-12775
▁kiloko	-12776
▁hiruhil	-12777
▁funtsean	-12778
KI	-12779
cul	-12780
▁Egipto	-12781
▁zatiketa	-12782
▁Alderdien	-12783
▁arrakastatsua	-12784
▁Arana	-12785
▁menper	-12786
▁zentimetro	-12787
▁azpimarratzen	-12788
nak	-12789
earekin	-12790
▁horizon	-12791
▁baimenik	-12792
▁kritikoa	-12793
▁gobernuko	-12794
ju	-12795
▁Tir	-12796
▁zelul	-12797
▁eserleku	-12798
▁kanpainan	-12799
▁doz	-12800
▁Alej	-12801
▁Komunik	-12802
▁ebazpena	-12803
▁lurretan	-12804
▁Goen	-12805
▁Guatem	-12806
▁esprin	-12807
▁kolokan	-12808
▁delakoan	-12809
▁Izendapena	-12810
▁asteroideak	-12811
mando	-12812
▁Jones	-12813
arkeria	-12814
Emakum	-12815
att	-12816
ors	-12817
▁neguan	-12818
▁Agustin	-12819
▁helduko	-12820
▁etxearen	-12821
▁harmon	-12822
▁tratamendua	-12823
Mer	-12824
▁espedi	-12825
▁udalak	-12826
▁kolonia	-12827
▁osatzea	-12828
▁kausa	-12829
▁abesten	-12830
▁erregina	-12831
igon	-12832
teles	-12833
▁lehengus	-12834
▁prebentz	-12835
▁zizkieten	-12836
▁Ibai	-12837
▁Santan	-12838
nik	-12839
esper	-12840
urricul	-12841
▁handienetako	-12842
▁Ondare	-12843
▁jantzita	-12844
▁galdeketa	-12845
▁trantsizio	-12846
ialak	-12847
▁mezuak	-12848
▁inguruetan	-12849
fr	-12850
tzarik	-12851
▁biharko	-12852
▁daukaten	-12853
▁herrialdetan	-12854
drom	-12855
Herri	-12856
meria	-12857
tatze	-12858
▁euri	-12859
▁agintariak	-12860
▁Ot	-12861
vill	-12862
▁Gogor	-12863
▁Altuna	-12864
▁bidaliko	-12865
VID	-12866
ostom	-12867
▁Itzulia	-12868
▁mugatua	-12869
▁bukatuko	-12870
▁Washingtonek	-12871
igune	-12872
▁Lana	-12873
▁epaia	-12874
▁propag	-12875
fesional	-12876
▁gaztelu	-12877
LAS	-12878
iop	-12879
ukan	-12880
▁editor	-12881
▁aginduz	-12882
▁diskoan	-12883
▁webgune	-12884
diana	-12885
▁igorr	-12886
▁adituak	-12887
irlanderaz	-12888
▁Kanta	-12889
gintzaren	-12890
▁gatazkak	-12891
▁gehienen	-12892
▁baliagarria	-12893
Texas	-12894
pents	-12895
▁Ziur	-12896
▁Guggen	-12897
▁Pilota	-12898
LE	-12899
ipto	-12900
▁mad	-12901
▁kontinen	-12902
▁indargabe	-12903
▁atxilotutako	-12904
▁UR	-12905
tris	-12906
▁Eskolako	-12907
▁Eguzkiaren	-12908
▁konponbide	-12909
tah	-12910
▁itxuraz	-12911
▁Haurren	-12912
▁kaltetu	-12913
▁kantatu	-12914
▁egitekoa	-12915
▁aitzindari	-12916
▁produktuen	-12917
BA	-12918
ogon	-12919
▁Mais	-12920
▁odola	-12921
▁Prents	-12922
▁Larunbatean	-12923
ehala	-12924
tekin	-12925
ondoko	-12926
ikul	-12927
▁Dako	-12928
▁klin	-12929
▁Vladi	-12930
▁orkes	-12931
turekin	-12932
▁txukun	-12933
▁besteek	-12934
▁banakako	-12935
Sh	-12936
cip	-12937
▁hol	-12938
▁Done	-12939
▁laburbil	-12940
▁bizikleta	-12941
▁neb	-12942
ezake	-12943
▁zerr	-12944
▁goizti	-12945
▁erakarri	-12946
Los	-12947
dop	-12948
▁Gall	-12949
▁klor	-12950
idanik	-12951
▁ikastola	-12952
iscon	-12953
▁bateria	-12954
▁egiteari	-12955
Leg	-12956
▁Ces	-12957
▁Miss	-12958
▁Kosov	-12959
▁bitxi	-12960
▁gurpil	-12961
▁Bandera	-12962
▁Osakide	-12963
▁inkomun	-12964
▁irakatsi	-12965
▁selekzioarekin	-12966
Jul	-12967
▁amod	-12968
▁baraz	-12969
▁Sariak	-12970
Kalifornia	-12971
▁Cop	-12972
buruak	-12973
erazko	-12974
▁Genev	-12975
▁brasil	-12976
▁López	-12977
▁Ido	-12978
▁Españ	-12979
▁hondartza	-12980
▁Bertsolari	-12981
Po	-12982
uto	-12983
gela	-12984
kariko	-12985
▁Loira	-12986
▁latza	-12987
▁atentatua	-12988
▁ahalbidetu	-12989
▁AHT	-12990
▁garbitu	-12991
▁pribatua	-12992
ions	-12993
▁Biak	-12994
▁gertuko	-12995
▁teknikoa	-12996
▁itxaropen	-12997
▁Meg	-12998
emakum	-12999
belarri	-13000
▁Ofizial	-13001
▁materia	-13002
▁handietan	-13003
▁kezkatuta	-13004
▁erabakiaren	-13005
▁kaleratutako	-13006
▁Dig	-13007
▁jipo	-13008
▁aproposa	-13009
▁Behatokitik	-13010
rac	-13011
▁kostu	-13012
▁umore	-13013
▁kaleak	-13014
▁multinazional	-13015
amar	-13016
port	-13017
▁Sel	-13018
entzu	-13019
▁gotzain	-13020
▁galdetzen	-13021
▁ESK	-13022
▁res	-13023
▁Kontuan	-13024
▁Udalbil	-13025
▁tak	-13026
illas	-13027
▁Anna	-13028
▁altzairu	-13029
▁isurtzen	-13030
▁Askatasunak	-13031
▁Bez	-13032
▁Henrike	-13033
▁lurraren	-13034
▁Christian	-13035
▁dokumentala	-13036
▁independentea	-13037
▁How	-13038
urgia	-13039
▁UEFA	-13040
tikoaren	-13041
▁delakoa	-13042
▁ipuinak	-13043
▁ustekab	-13044
▁segundoko	-13045
▁Argentinan	-13046
▁berehalako	-13047
▁egitasmoak	-13048
▁Taf	-13049
▁Vel	-13050
▁burts	-13051
▁event	-13052
▁zaind	-13053
▁handian	-13054
▁banaturik	-13055
▁gotorleku	-13056
chek	-13057
▁Arnaldo	-13058
eix	-13059
bian	-13060
▁Johan	-13061
▁doako	-13062
▁PSOEko	-13063
izaren	-13064
▁artistikoa	-13065
▁kontratatu	-13066
▁eraikinaren	-13067
▁historikoak	-13068
arl	-13069
tesi	-13070
▁azala	-13071
▁Estu	-13072
▁errepublikan	-13073
intza	-13074
▁ukatzen	-13075
▁herritik	-13076
▁teknikak	-13077
▁irakasten	-13078
▁Miarritzek	-13079
ENA	-13080
▁Mayor	-13081
ić	-13082
ersey	-13083
▁orbitak	-13084
▁EEBBetako	-13085
▁literaturan	-13086
▁LA	-13087
▁diet	-13088
katzea	-13089
▁erasoen	-13090
▁Katalunia	-13091
▁Ega	-13092
▁joka	-13093
iarena	-13094
▁Canal	-13095
▁puntua	-13096
▁Argital	-13097
▁edukiko	-13098
▁egiteak	-13099
CC	-13100
▁oparoa	-13101
▁Erdialdea	-13102
varo	-13103
hal	-13104
▁Paz	-13105
batza	-13106
lariek	-13107
▁ederrak	-13108
▁gorabeherak	-13109
▁balko	-13110
▁helikop	-13111
▁Virginia	-13112
▁portugald	-13113
Nor	-13114
▁og	-13115
▁Espazio	-13116
▁Herriari	-13117
▁propietate	-13118
abes	-13119
pata	-13120
▁fun	-13121
▁Anth	-13122
▁Jesusen	-13123
▁hautagaia	-13124
▁errepikatzen	-13125
▁haurrentzako	-13126
▁National	-13127
▁bezalakoa	-13128
▁idazkariak	-13129
etts	-13130
lean	-13131
▁Sing	-13132
▁Center	-13133
▁esanak	-13134
▁ugariak	-13135
▁Bestelako	-13136
▁berdintasuna	-13137
▁frantziarrak	-13138
▁aipagarr	-13139
▁deritzon	-13140
▁hazkuntza	-13141
▁Anjel	-13142
▁bilketa	-13143
▁estatuen	-13144
▁Wikipedia	-13145
▁dabilen	-13146
▁sinatutako	-13147
pr	-13148
neum	-13149
ález	-13150
▁Koreako	-13151
▁Dei	-13152
▁eszena	-13153
▁fikziozko	-13154
▁azterketak	-13155
ieg	-13156
zig	-13157
ostitu	-13158
▁Ikast	-13159
atikoak	-13160
erakunde	-13161
▁jasotzea	-13162
▁pertsonaren	-13163
etxo	-13164
▁Oper	-13165
▁UAko	-13166
▁beka	-13167
▁Elena	-13168
▁Puerto	-13169
▁aniztasuna	-13170
agne	-13171
taria	-13172
▁Ohiko	-13173
aik	-13174
oza	-13175
▁lizentzi	-13176
arran	-13177
▁epel	-13178
▁jain	-13179
▁lizentz	-13180
▁Bernardo	-13181
▁bakterio	-13182
▁inportan	-13183
▁irabazle	-13184
▁praktikan	-13185
vio	-13186
▁Inf	-13187
manek	-13188
teetan	-13189
▁operazioa	-13190
▁daramatza	-13191
▁makurdura	-13192
▁zituztenak	-13193
azue	-13194
artearen	-13195
▁Zapaterok	-13196
▁ezkutatzen	-13197
ondon	-13198
▁Egur	-13199
▁ezagutzea	-13200
try	-13201
▁kg	-13202
baki	-13203
icia	-13204
▁CDN	-13205
▁nuela	-13206
▁deituta	-13207
▁sasoian	-13208
▁zaintza	-13209
arengatik	-13210
▁komunikazioa	-13211
▁oto	-13212
ibarko	-13213
▁berrez	-13214
▁Bretainiako	-13215
▁Aginte	-13216
Germ	-13217
tivo	-13218
▁Fle	-13219
▁Victoria	-13220
▁manifest	-13221
▁bateratua	-13222
▁indarkeriaren	-13223
▁xed	-13224
urriak	-13225
▁Irakur	-13226
▁Texasko	-13227
▁garapenean	-13228
nil	-13229
ult	-13230
▁host	-13231
▁Eugen	-13232
tasunaz	-13233
▁Madraz	-13234
ool	-13235
▁Dip	-13236
▁erruz	-13237
▁molde	-13238
▁Fernández	-13239
▁oihartzun	-13240
▁gobernadore	-13241
uar	-13242
ozenaka	-13243
▁González	-13244
▁etekin	-13245
▁osagaiak	-13246
▁aspalditik	-13247
▁konposizio	-13248
▁musikariak	-13249
▁aldaketarik	-13250
ESCO	-13251
durak	-13252
▁Aseg	-13253
▁zama	-13254
▁domin	-13255
▁Goizeko	-13256
▁ekoizteko	-13257
agi	-13258
kada	-13259
left	-13260
toen	-13261
▁herrix	-13262
▁sinple	-13263
▁zetorren	-13264
▁solairuan	-13265
lé	-13266
tamendua	-13267
▁hoberen	-13268
▁hitzaren	-13269
dex	-13270
rari	-13271
▁luzatzen	-13272
▁Estatutua	-13273
▁sailkapenean	-13274
▁zezaten	-13275
▁nafarrak	-13276
▁zailagoa	-13277
▁pertsonalak	-13278
ky	-13279
atra	-13280
▁ETAri	-13281
▁Saileko	-13282
▁hobetzea	-13283
▁uharteko	-13284
▁Udalbiltz	-13285
▁Nagusiaren	-13286
▁hier	-13287
▁botoak	-13288
▁Hizkuntz	-13289
▁okupazio	-13290
▁Austriako	-13291
▁goraipatu	-13292
▁paregabea	-13293
ceae	-13294
▁horia	-13295
▁bolumen	-13296
izan	-13297
ourt	-13298
▁dos	-13299
▁afrik	-13300
▁plater	-13301
▁salaketak	-13302
atez	-13303
detako	-13304
▁gudaros	-13305
asc	-13306
azion	-13307
iketan	-13308
▁Scott	-13309
▁luzean	-13310
▁Elizaren	-13311
▁antolatuko	-13312
▁txikiagoak	-13313
▁elkarretaratzea	-13314
EO	-13315
▁astebete	-13316
▁lelopean	-13317
▁bizkaitar	-13318
▁negar	-13319
▁udaberrian	-13320
gian	-13321
▁Aranz	-13322
▁biziko	-13323
▁Vietnam	-13324
▁eraginda	-13325
▁probabil	-13326
▁lanagatik	-13327
IM	-13328
ioiak	-13329
▁Data	-13330
aketari	-13331
▁kontrolatu	-13332
mez	-13333
▁Ple	-13334
▁Kontsum	-13335
dora	-13336
truk	-13337
▁Amaz	-13338
▁Hogeita	-13339
▁zirudien	-13340
lac	-13341
▁Bast	-13342
▁Marr	-13343
urekin	-13344
▁Tolosan	-13345
▁elkarlana	-13346
▁ezagunenak	-13347
▁hilabetean	-13348
▁orbita	-13349
▁Lopezek	-13350
▁daitekeena	-13351
▁bare	-13352
▁deitur	-13353
▁janaria	-13354
▁irakurtzeko	-13355
▁Urtarrilaren	-13356
arrita	-13357
▁espainiarra	-13358
▁fe	-13359
ates	-13360
itian	-13361
igintz	-13362
▁popul	-13363
▁enpleg	-13364
▁irabaziz	-13365
▁Erakusketa	-13366
▁txapelketak	-13367
▁zabalean	-13368
▁muturrean	-13369
exek	-13370
▁mintzatzen	-13371
▁Hall	-13372
▁satelite	-13373
▁sinadura	-13374
▁Laugarren	-13375
▁taldeetan	-13376
sten	-13377
▁EBk	-13378
tuago	-13379
▁Parlamentuak	-13380
Ga	-13381
▁parr	-13382
▁txikietan	-13383
▁São	-13384
▁Vern	-13385
▁Euskar	-13386
▁hitzen	-13387
'-	-13388
▁Rey	-13389
▁silik	-13390
▁lekutan	-13391
▁François	-13392
probis	-13393
▁Beder	-13394
▁josta	-13395
▁marin	-13396
▁artikuluan	-13397
▁gerrillari	-13398
▁jaurtiketa	-13399
▁Bran	-13400
▁aizko	-13401
ñat	-13402
▁Sara	-13403
▁esne	-13404
▁eskuan	-13405
▁libera	-13406
▁bueltatu	-13407
▁elektronikoa	-13408
▁estreinatuko	-13409
su	-13410
doen	-13411
▁Atal	-13412
▁Vinc	-13413
▁Emilio	-13414
▁Sinfon	-13415
▁erregai	-13416
▁nabaritu	-13417
▁Magnitude	-13418
▁hizkuntzan	-13419
kr	-13420
▁Bizkai	-13421
▁balioak	-13422
▁handiarekin	-13423
Les	-13424
▁Rep	-13425
▁Berrian	-13426
▁Museoan	-13427
▁balantz	-13428
▁misterio	-13429
▁ibaian	-13430
▁ditugula	-13431
atzearekin	-13432
▁banandu	-13433
▁ospitalean	-13434
▁Finlandiako	-13435
▁legebiltzarkide	-13436
▁partidaren	-13437
▁eriz	-13438
▁Kob	-13439
ophis	-13440
ikotik	-13441
▁gidatu	-13442
Frantzia	-13443
▁Dokumen	-13444
▁bederatz	-13445
▁bidaltzeko	-13446
isfer	-13447
▁Garzon	-13448
▁Mendiz	-13449
▁saskibaloi	-13450
▁margotu	-13451
▁zurrumurr	-13452
▁oroitzapen	-13453
tikan	-13454
ikorik	-13455
▁ahula	-13456
▁ixteko	-13457
▁zikloa	-13458
▁deituriko	-13459
▁Imazek	-13460
▁esklab	-13461
laguntza	-13462
▁Pirinioetako	-13463
ñez	-13464
▁neutr	-13465
▁mozorro	-13466
▁eskaintzea	-13467
▁ezagunagoa	-13468
▁konpainiaren	-13469
IR	-13470
Beh	-13471
dig	-13472
asia	-13473
▁East	-13474
▁txinat	-13475
▁emaitzen	-13476
▁armadaren	-13477
indu	-13478
▁Viv	-13479
▁defiz	-13480
▁Filipe	-13481
▁kolpea	-13482
LO	-13483
dows	-13484
intsu	-13485
▁tira	-13486
▁grina	-13487
▁Argitar	-13488
▁Gio	-13489
▁puz	-13490
▁Cald	-13491
▁Arrak	-13492
formula	-13493
▁bakarkako	-13494
▁erantzunez	-13495
▁transgen	-13496
linikoaren	-13497
▁arreba	-13498
▁daudelako	-13499
▁informazioaren	-13500
amo	-13501
▁Monta	-13502
▁Master	-13503
▁orbitala	-13504
biñ	-13505
▁xi	-13506
keela	-13507
egoera	-13508
▁Aurkez	-13509
Las	-13510
▁Aban	-13511
▁leloa	-13512
▁Kontua	-13513
▁jaietan	-13514
▁oinez	-13515
▁egitearen	-13516
▁etorkinen	-13517
▁bud	-13518
ainoko	-13519
▁Peruko	-13520
▁Mendizabal	-13521
ITA	-13522
▁berba	-13523
oizko	-13524
▁Istr	-13525
nor	-13526
▁Neguko	-13527
▁dutenei	-13528
▁ezabatu	-13529
▁bisitari	-13530
▁sud	-13531
▁kontsumoa	-13532
▁hobekuntza	-13533
▁EUS	-13534
▁espazioa	-13535
▁Fundazioak	-13536
▁Miarritzeko	-13537
▁soinua	-13538
▁naizela	-13539
▁Britainiar	-13540
▁ei	-13541
Ital	-13542
tzara	-13543
▁niri	-13544
▁Barre	-13545
▁Gusta	-13546
▁gaizk	-13547
▁positibo	-13548
▁adierazpena	-13549
▁filmetan	-13550
▁batzordea	-13551
▁Sinn	-13552
▁Milan	-13553
▁hilda	-13554
▁fruitu	-13555
▁saileko	-13556
▁Material	-13557
▁goizaldean	-13558
udia	-13559
▁konex	-13560
▁ostiral	-13561
▁gobernuburu	-13562
▁gaztelaniazko	-13563
telarik	-13564
▁asmoak	-13565
▁lorpen	-13566
▁Jarraian	-13567
▁eskatuta	-13568
▁murriztea	-13569
▁Hurbilketa	-13570
ñak	-13571
obedi	-13572
▁baitaude	-13573
▁justifik	-13574
▁Euskalduna	-13575
▁Artur	-13576
▁giroan	-13577
▁hiritar	-13578
▁kutsadura	-13579
IAK	-13580
teka	-13581
Horre	-13582
▁Jersey	-13583
▁ezohiko	-13584
▁bakearen	-13585
▁gipuzkoar	-13586
▁aitzindaria	-13587
▁manifestazioan	-13588
adis	-13589
▁Yam	-13590
etegi	-13591
▁Kenn	-13592
▁Maiz	-13593
▁didate	-13594
▁zaizkion	-13595
▁aurkeztea	-13596
KAR	-13597
tros	-13598
▁Dev	-13599
▁fig	-13600
▁Femin	-13601
▁Badira	-13602
▁harlan	-13603
▁eraberr	-13604
▁Quebeceko	-13605
▁herrialdeetako	-13606
▁Korrika	-13607
CD	-13608
kion	-13609
▁Ash	-13610
▁lim	-13611
▁Corn	-13612
▁Eskubide	-13613
▁Bé	-13614
▁armen	-13615
▁hurrun	-13616
▁Bit	-13617
▁inkesta	-13618
▁Ondorengo	-13619
▁EN	-13620
idio	-13621
loss	-13622
▁Aurrez	-13623
▁buruzagiak	-13624
▁elkartasun	-13625
▁Aviv	-13626
▁tropik	-13627
▁Polonia	-13628
gas	-13629
ías	-13630
ilako	-13631
▁France	-13632
▁Handiaren	-13633
▁idazkaria	-13634
▁aireportua	-13635
ال	-13636
neko	-13637
▁iruzur	-13638
▁gertaerak	-13639
▁Oc	-13640
agia	-13641
▁Ord	-13642
inean	-13643
ketarik	-13644
▁zuzenak	-13645
▁itsasoko	-13646
▁agentziak	-13647
▁gutxiengo	-13648
▁ikasleei	-13649
▁ospitalera	-13650
▁espainiarrak	-13651
▁Alba	-13652
▁elizan	-13653
▁ekoizte	-13654
▁gizonek	-13655
errusieraz	-13656
▁denborarekin	-13657
rix	-13658
▁Ohio	-13659
▁hies	-13660
▁Gurutz	-13661
▁Badirudi	-13662
▁Programa	-13663
▁ezkutuan	-13664
eako	-13665
sachus	-13666
▁Ikastar	-13667
▁Nikolas	-13668
▁adostasun	-13669
▁aholkulari	-13670
▁Ink	-13671
▁artisten	-13672
▁atsegina	-13673
▁nagusiek	-13674
▁zigorrak	-13675
▁zorrotzak	-13676
▁Ait	-13677
▁BBV	-13678
▁Rac	-13679
konts	-13680
▁Tokio	-13681
▁auzap	-13682
▁Hilaren	-13683
▁Australia	-13684
EAN	-13685
itm	-13686
cheil	-13687
▁Marg	-13688
idaren	-13689
▁litez	-13690
▁kantitate	-13691
▁lux	-13692
▁Argia	-13693
udalerri	-13694
▁naturalak	-13695
▁argitaletxeak	-13696
▁interesgarriak	-13697
▁Lé	-13698
▁heste	-13699
▁ametsa	-13700
▁gertur	-13701
▁arabiar	-13702
▁Parisera	-13703
▁biktimen	-13704
▁Dagoeneko	-13705
▁errazagoa	-13706
▁elikagaiak	-13707
agabe	-13708
▁zilind	-13709
▁dolarreko	-13710
▁guztientzat	-13711
Châ	-13712
▁xum	-13713
▁gutxik	-13714
▁Armstrong	-13715
▁gaitzak	-13716
▁ondarea	-13717
▁sendotu	-13718
▁militarren	-13719
▁profesionalak	-13720
▁Ali	-13721
▁ezen	-13722
▁Ekoiz	-13723
▁kamioi	-13724
gintzako	-13725
▁Interes	-13726
▁batzordeko	-13727
▁Eguzkiarekiko	-13728
Iz	-13729
Bes	-13730
▁Musk	-13731
▁Pekin	-13732
▁ultra	-13733
▁Google	-13734
▁Neurri	-13735
▁bistan	-13736
▁denon	-13737
▁osatuz	-13738
▁diagnost	-13739
emon	-13740
▁zapore	-13741
▁Aitzitik	-13742
▁Sailaren	-13743
▁dimentsio	-13744
▁adineko	-13745
▁Eraikina	-13746
▁frogatzen	-13747
▁berriarekin	-13748
ited	-13749
tratu	-13750
▁Antar	-13751
▁mailak	-13752
intsulako	-13753
▁arautzen	-13754
▁izenaren	-13755
Ap	-13756
▁Zil	-13757
▁urrea	-13758
▁sintom	-13759
▁eskatzea	-13760
▁Zaragozako	-13761
▁sp	-13762
▁Ariel	-13763
▁NBEren	-13764
▁omendu	-13765
▁japoniar	-13766
sachusetts	-13767
▁zutenetik	-13768
ui	-13769
itzekoa	-13770
▁sailean	-13771
▁jatorriz	-13772
▁funtzionamendu	-13773
zel	-13774
▁Aj	-13775
▁Realaren	-13776
▁Filosofia	-13777
riar	-13778
▁Micr	-13779
▁NBEk	-13780
▁Scinc	-13781
▁tasak	-13782
▁Williams	-13783
▁zegoelako	-13784
nan	-13785
▁But	-13786
itiak	-13787
▁Guzti	-13788
▁egoitz	-13789
▁giltza	-13790
▁burdinbide	-13791
__	-13792
chel	-13793
trina	-13794
▁Josep	-13795
▁Argazki	-13796
▁inondik	-13797
▁postuetan	-13798
▁zuzentzeko	-13799
▁Fuen	-13800
▁Teles	-13801
▁Alexander	-13802
gir	-13803
koen	-13804
▁Aiz	-13805
deren	-13806
iteak	-13807
▁Medi	-13808
▁Krist	-13809
▁errendi	-13810
▁herritan	-13811
▁metropol	-13812
aseko	-13813
▁Mahai	-13814
▁errudun	-13815
▁mendera	-13816
Ok	-13817
▁mel	-13818
etika	-13819
▁paten	-13820
unt	-13821
▁EAE	-13822
▁Post	-13823
Euskad	-13824
▁medikuak	-13825
▁Alemaniak	-13826
jakin	-13827
ments	-13828
▁Sesta	-13829
▁zergak	-13830
▁erregul	-13831
▁artistaren	-13832
hard	-13833
ming	-13834
▁Mess	-13835
▁UNESCO	-13836
▁Irratia	-13837
▁finalera	-13838
▁agerraldia	-13839
▁ziurtatzeko	-13840
▁ikuspuntutik	-13841
▁iba	-13842
▁Azpi	-13843
▁didak	-13844
▁Enpl	-13845
▁edan	-13846
▁Atxilo	-13847
▁inperial	-13848
▁kontsumo	-13849
▁Iztu	-13850
▁pron	-13851
▁Marko	-13852
▁bihotza	-13853
▁diskoak	-13854
▁zeregina	-13855
▁Ertzaintzaren	-13856
cock	-13857
▁Igo	-13858
lig	-13859
isau	-13860
▁col	-13861
guren	-13862
▁Entzu	-13863
▁plataformak	-13864
▁Cham	-13865
▁Kolon	-13866
▁zuhur	-13867
▁parada	-13868
▁espetxeratu	-13869
▁Guggenheim	-13870
▁Tax	-13871
▁Solda	-13872
▁Eszentr	-13873
▁lapurtu	-13874
▁dezatela	-13875
▁buruzagia	-13876
▁Ea	-13877
▁Aintz	-13878
▁justiz	-13879
arioaren	-13880
cht	-13881
osk	-13882
aluz	-13883
mundu	-13884
▁Bitx	-13885
▁Iowa	-13886
ixkanaka	-13887
▁finlandi	-13888
▁idatziak	-13889
▁kontzien	-13890
okzitanieraz	-13891
▁Teoria	-13892
▁sagardo	-13893
▁partaidetza	-13894
▁Cha	-13895
▁Pav	-13896
antzan	-13897
▁Hamil	-13898
▁haiei	-13899
tasunen	-13900
▁Esloven	-13901
▁aitzinean	-13902
▁eztabaidan	-13903
▁uhartearen	-13904
▁Urdai	-13905
▁digun	-13906
ieraren	-13907
▁ostatu	-13908
▁bakarrean	-13909
▁gizabanako	-13910
▁koordinatzaile	-13911
▁NBE	-13912
▁nit	-13913
▁gaua	-13914
▁Intxaur	-13915
▁hizkera	-13916
▁Irakasle	-13917
▁Konbentz	-13918
▁plangintza	-13919
▁Venezuelako	-13920
Germain	-13921
▁Beloki	-13922
▁Indones	-13923
▁ñ	-13924
▁hilobi	-13925
▁karrik	-13926
▁obraren	-13927
toria	-13928
▁Baldin	-13929
▁Ð	-13930
▁Asian	-13931
▁Lekua	-13932
▁zeina	-13933
▁puntuko	-13934
▁zentroa	-13935
▁kargutik	-13936
▁merkatua	-13937
▁guztietatik	-13938
▁intelektual	-13939
fre	-13940
usi	-13941
▁AD	-13942
berak	-13943
▁Carl	-13944
▁Getxoko	-13945
▁nolakoa	-13946
▁bidaiatu	-13947
▁abertzaleen	-13948
Bo	-13949
iker	-13950
▁Arch	-13951
▁ukanen	-13952
▁Kanpoko	-13953
▁erakusle	-13954
▁gobernatu	-13955
▁zinemagil	-13956
▁txir	-13957
ikuntzaren	-13958
hir	-13959
▁Dr	-13960
▁berme	-13961
▁krimen	-13962
▁osorako	-13963
▁hegan	-13964
alismoa	-13965
▁korrik	-13966
▁likido	-13967
▁erortzen	-13968
▁Veg	-13969
iolak	-13970
▁modurik	-13971
▁Hezkuntz	-13972
▁adostasuna	-13973
▁gomendatzen	-13974
▁Pot	-13975
▁fre	-13976
otara	-13977
▁absolutoa	-13978
▁jendaurrean	-13979
TV	-13980
filma	-13981
▁Blair	-13982
▁Royal	-13983
▁pande	-13984
▁Larrañ	-13985
▁erbeste	-13986
▁konform	-13987
GA	-13988
▁anbul	-13989
▁eguer	-13990
▁librea	-13991
▁alargun	-13992
▁fabrika	-13993
▁oniritz	-13994
ferentziak	-13995
▁antolatzea	-13996
eroen	-13997
▁meatz	-13998
▁sareak	-13999
▁irudikatu	-14000
did	-14001
town	-14002
▁das	-14003
▁bizitz	-14004
▁doktor	-14005
▁Egunean	-14006
▁ingurua	-14007
tasar	-14008
▁Iban	-14009
▁Merce	-14010
▁autom	-14011
▁eragil	-14012
▁gatazk	-14013
▁errauste	-14014
▁Orbitaren	-14015
▁kooperatib	-14016
cl	-14017
▁aleg	-14018
▁balioko	-14019
▁dituenak	-14020
▁publizitate	-14021
▁proposamenaren	-14022
key	-14023
▁lanek	-14024
▁oroimen	-14025
▁filosofo	-14026
▁lekuetan	-14027
etasunaren	-14028
▁jeneralak	-14029
Ca	-14030
▁Dio	-14031
uzkan	-14032
▁Cich	-14033
▁suhil	-14034
▁tenplu	-14035
▁langabe	-14036
▁alderdik	-14037
▁elikatzen	-14038
▁Herritarren	-14039
tit	-14040
lerrek	-14041
▁Alegia	-14042
▁estali	-14043
▁zaizkigu	-14044
▁UPNk	-14045
▁Harri	-14046
▁Pérez	-14047
▁moral	-14048
itatera	-14049
tasa	-14050
▁kantua	-14051
▁exijitu	-14052
▁laburrean	-14053
▁Horrenbestez	-14054
Mo	-14055
tzail	-14056
▁hitu	-14057
iangel	-14058
▁Siste	-14059
▁basat	-14060
▁gauez	-14061
▁jateko	-14062
▁Antzerk	-14063
▁interpretatu	-14064
oven	-14065
▁saritu	-14066
▁akatsak	-14067
▁haustura	-14068
▁alderatuz	-14069
▁bre	-14070
etate	-14071
ariako	-14072
itsuak	-14073
▁Zapat	-14074
▁umeen	-14075
▁erlazio	-14076
istarekin	-14077
▁sumatzen	-14078
▁adierazle	-14079
▁Osasunaren	-14080
▁Meh	-14081
untzean	-14082
▁atleta	-14083
▁gauden	-14084
▁gorena	-14085
▁dinamika	-14086
▁telesaila	-14087
▁hautagaitza	-14088
▁Blo	-14089
▁Olas	-14090
izatua	-14091
andante	-14092
▁Arrisk	-14093
▁dadila	-14094
▁Chicago	-14095
▁lekurik	-14096
▁aurrekontuak	-14097
ideren	-14098
▁adituen	-14099
▁kasutan	-14100
▁daramatz	-14101
▁Errepublikan	-14102
▁(«	-14103
phis	-14104
▁Basque	-14105
mm	-14106
arius	-14107
duten	-14108
latin	-14109
▁jaia	-14110
▁justif	-14111
▁bultzatuta	-14112
Pres	-14113
usio	-14114
▁eskut	-14115
▁Toledo	-14116
▁naizen	-14117
▁Kanpain	-14118
▁CN	-14119
▁Arb	-14120
▁Rek	-14121
lingu	-14122
▁monok	-14123
▁Estatua	-14124
▁eskatuz	-14125
▁graduatu	-14126
▁hurruntze	-14127
dira	-14128
▁munta	-14129
▁bermea	-14130
▁kamera	-14131
▁zorian	-14132
▁Zaharra	-14133
▁herrira	-14134
▁zenbakian	-14135
bius	-14136
▁Brig	-14137
▁Aznar	-14138
▁sarbidea	-14139
▁kulturala	-14140
▁erbesteratu	-14141
▁Cul	-14142
▁Fein	-14143
orrera	-14144
▁Sharon	-14145
▁dibert	-14146
▁autogobern	-14147
▁interesatzen	-14148
▁Tri	-14149
▁Zabala	-14150
▁errebo	-14151
▁irrats	-14152
▁errekorra	-14153
▁proposatutako	-14154
Ben	-14155
ape	-14156
tzek	-14157
▁fur	-14158
▁Cons	-14159
▁keinu	-14160
▁mexik	-14161
▁Arafat	-14162
▁disolb	-14163
▁abiapuntu	-14164
akizuna	-14165
▁eskubidearen	-14166
orus	-14167
▁Gernika	-14168
▁irizpideak	-14169
meh	-14170
ueva	-14171
▁Pir	-14172
▁enpar	-14173
▁kulturan	-14174
▁arrazoirik	-14175
▁batengatik	-14176
▁Lon	-14177
▁Bako	-14178
▁Llan	-14179
▁Hildako	-14180
▁zabalak	-14181
▁dagoenez	-14182
▁ekonomikoaren	-14183
▁Zain	-14184
▁emigr	-14185
▁Biltzar	-14186
▁turismo	-14187
▁ikastaroa	-14188
cin	-14189
eyn	-14190
Flor	-14191
▁Nahas	-14192
▁gaixotasunak	-14193
▁(+%	-14194
▁flu	-14195
izunak	-14196
▁Muñoz	-14197
▁zaiela	-14198
▁egiteaz	-14199
▁bilaketa	-14200
Bk	-14201
more	-14202
▁izandakoa	-14203
▁alternatib	-14204
koko	-14205
▁lar	-14206
▁laz	-14207
▁Emaitza	-14208
▁legegintz	-14209
▁Danimarkako	-14210
▁ikertzaileek	-14211
▁SP	-14212
▁fra	-14213
▁Irek	-14214
▁Wolf	-14215
▁lingu	-14216
▁muzin	-14217
azioarekin	-14218
rys	-14219
▁Doug	-14220
▁legedi	-14221
oga	-14222
kina	-14223
inter	-14224
▁itsu	-14225
▁ahizp	-14226
▁param	-14227
▁iraupen	-14228
▁Europara	-14229
Giz	-14230
bes	-14231
▁Vall	-14232
▁hiper	-14233
▁sektorea	-14234
▁botatzeko	-14235
Eg	-14236
wen	-14237
▁Tem	-14238
▁Puntu	-14239
▁Antton	-14240
▁Erroma	-14241
▁jaiotza	-14242
untzen	-14243
▁eurek	-14244
▁Navarra	-14245
▁lekukoa	-14246
▁emakumeei	-14247
dail	-14248
polo	-14249
▁Jam	-14250
penas	-14251
▁fara	-14252
duaren	-14253
isteko	-14254
eratuko	-14255
▁exekut	-14256
▁zurrun	-14257
▁Edonola	-14258
▁saltzeko	-14259
▁Azur	-14260
▁onura	-14261
▁bilerak	-14262
▁proteina	-14263
▁erabilita	-14264
▁teknikoak	-14265
▁sozialaren	-14266
▁erromatarren	-14267
itzeaz	-14268
▁Horretan	-14269
Nafarroako	-14270
▁entrenatu	-14271
▁Uda	-14272
▁zizk	-14273
▁Robin	-14274
▁haitz	-14275
▁txakur	-14276
▁kreditu	-14277
▁igandeko	-14278
▁burutzeko	-14279
▁erraldoia	-14280
▁iradokitzen	-14281
eoa	-14282
urrez	-14283
▁aise	-14284
▁COVID	-14285
▁Errek	-14286
▁handiek	-14287
atoa	-14288
▁Dim	-14289
iones	-14290
▁irakasleen	-14291
int	-14292
▁klon	-14293
ariren	-14294
▁hamaz	-14295
▁Ainhoa	-14296
teagatik	-14297
▁Vladimir	-14298
▁egurrezko	-14299
▁erakutsitako	-14300
▁Bl	-14301
tiboak	-14302
Indiana	-14303
atzekoak	-14304
▁berberak	-14305
▁duenaren	-14306
▁estatutu	-14307
▁Eztabaida	-14308
▁gobernuari	-14309
VD	-14310
andak	-14311
erbator	-14312
▁Gerora	-14313
▁agortu	-14314
▁hiribil	-14315
▁Arzalluz	-14316
▁euskaltzain	-14317
▁PC	-14318
ultzo	-14319
▁alban	-14320
▁urban	-14321
itzeari	-14322
▁Baltasar	-14323
jauz	-14324
arabieraz	-14325
▁pantaila	-14326
▁harrapatzen	-14327
▁Bara	-14328
▁igoko	-14329
▁Batzuek	-14330
▁zineman	-14331
▁haserrea	-14332
▁bihurtzea	-14333
okon	-14334
▁Law	-14335
▁Sac	-14336
▁Udab	-14337
▁behargin	-14338
▁juridikoa	-14339
▁historialari	-14340
▁NO	-14341
▁Pale	-14342
▁danbor	-14343
▁ikurra	-14344
▁Domingo	-14345
▁analisi	-14346
▁omenezko	-14347
▁hildakoak	-14348
UA	-14349
olek	-14350
▁tem	-14351
▁Igles	-14352
▁perio	-14353
▁Iturri	-14354
▁Ugarte	-14355
arunbata	-14356
▁entzute	-14357
▁bileraren	-14358
▁eztabaidak	-14359
hin	-14360
deen	-14361
geko	-14362
Frantz	-14363
▁Eskul	-14364
tikaren	-14365
▁pribat	-14366
▁izarrak	-14367
▁sug	-14368
▁Zuberoako	-14369
▁errepublika	-14370
▁Kepa	-14371
▁txuri	-14372
▁jarduteko	-14373
olit	-14374
▁kopa	-14375
▁Costa	-14376
▁antrop	-14377
▁Heriotza	-14378
▁kolektibo	-14379
▁Kof	-14380
▁Diaz	-14381
▁ahalegindu	-14382
▁he	-14383
tinak	-14384
▁bizian	-14385
▁jotzea	-14386
▁olerki	-14387
▁lehiatzen	-14388
▁araud	-14389
▁ditzan	-14390
Gr	-14391
▁uholde	-14392
▁Ingeles	-14393
▁zuzendua	-14394
▁Scincidae	-14395
ñako	-14396
ereak	-14397
▁Pino	-14398
▁Moskuko	-14399
▁silikato	-14400
▁Alejandro	-14401
diari	-14402
arbada	-14403
▁Allen	-14404
▁Landa	-14405
▁dendak	-14406
▁gerrak	-14407
▁urratu	-14408
▁diktadura	-14409
▁aldarrikatzeko	-14410
agen	-14411
▁lotur	-14412
▁bilbot	-14413
▁bozketa	-14414
▁-)	-14415
▁Gi	-14416
▁lanera	-14417
▁futbolean	-14418
ball	-14419
teri	-14420
▁soka	-14421
▁lehertu	-14422
▁potentzial	-14423
▁sailkatzeko	-14424
olis	-14425
▁arak	-14426
▁lagin	-14427
▁digitala	-14428
▁medikuntza	-14429
df	-14430
▁ito	-14431
▁pul	-14432
▁Aleg	-14433
▁ukrain	-14434
▁artisau	-14435
▁bideoak	-14436
illak	-14437
▁oldar	-14438
▁zintzo	-14439
aldaketa	-14440
▁katedrala	-14441
▁langileei	-14442
hon	-14443
arten	-14444
uzioa	-14445
▁erregu	-14446
▁itzulpena	-14447
▁Tin	-14448
ikoei	-14449
▁Amets	-14450
▁Adibide	-14451
▁lehiatuko	-14452
▁borrokatzen	-14453
akuntz	-14454
▁oihan	-14455
▁liderra	-14456
▁jardunaldiak	-14457
DE	-14458
▁Fort	-14459
▁abanta	-14460
▁tentsioa	-14461
phus	-14462
EEren	-14463
tesia	-14464
mendik	-14465
▁Leongo	-14466
▁Spring	-14467
▁gaudela	-14468
▁proiektuan	-14469
▁AM	-14470
bila	-14471
▁Him	-14472
▁Vie	-14473
▁Horn	-14474
▁Lisb	-14475
▁sartuz	-14476
iarekiko	-14477
▁hutsean	-14478
oll	-14479
ault	-14480
▁Sig	-14481
Gasteiz	-14482
▁ekoitzi	-14483
▁kantatzen	-14484
antis	-14485
errena	-14486
▁Corre	-14487
▁Kroaz	-14488
▁sabel	-14489
▁erosten	-14490
▁futbola	-14491
▁Urtebete	-14492
▁partidako	-14493
▁Eskualdeko	-14494
ryn	-14495
chet	-14496
eaux	-14497
iaketa	-14498
▁Berriari	-14499
▁Danimark	-14500
▁entreten	-14501
▁Santander	-14502
▁hamarkadatik	-14503
UNA	-14504
▁Ais	-14505
guneko	-14506
▁Museo	-14507
▁absolu	-14508
▁filmatu	-14509
▁diametroa	-14510
▁Gizateriaren	-14511
sky	-14512
▁epaileek	-14513
▁aldaketaren	-14514
▁Cur	-14515
▁Neu	-14516
tzear	-14517
▁Milos	-14518
▁entreg	-14519
▁egozten	-14520
▁ij	-14521
▁eskari	-14522
▁saioaren	-14523
▁askorekin	-14524
▁lelo	-14525
agailu	-14526
▁Laura	-14527
▁Bilbora	-14528
▁DBH	-14529
▁Mid	-14530
▁ardi	-14531
▁Filipin	-14532
gizon	-14533
▁Petrol	-14534
▁ziotela	-14535
▁garatzea	-14536
▁Sex	-14537
Europako	-14538
▁Estatutuaren	-14539
ng	-14540
▁diona	-14541
▁gabekoa	-14542
▁Erabilera	-14543
▁aipagarri	-14544
▁preson	-14545
▁mendietan	-14546
▁negoziatzeko	-14547
▁Nes	-14548
alais	-14549
▁Lertx	-14550
▁alfab	-14551
▁ekoitz	-14552
▁ezezkoa	-14553
▁iraultzaile	-14554
hem	-14555
▁partekatzen	-14556
lau	-14557
osak	-14558
titu	-14559
▁pata	-14560
▁tirok	-14561
ifikazio	-14562
▁heriotzak	-14563
▁bereizteko	-14564
▁lehendakariaren	-14565
▁Hugo	-14566
▁zuek	-14567
estern	-14568
▁samar	-14569
tiqueta	-14570
▁Bergar	-14571
▁Bereziki	-14572
▁galdutako	-14573
▁orok	-14574
ikoekin	-14575
▁portua	-14576
▁debekua	-14577
▁Oraingoz	-14578
▁joandako	-14579
▁sisteman	-14580
alitatearen	-14581
▁Tib	-14582
▁koher	-14583
▁Ciudad	-14584
▁azukre	-14585
▁monumen	-14586
▁norabidea	-14587
Loira	-14588
▁Abes	-14589
▁Vila	-14590
▁Lewis	-14591
▁zaleen	-14592
▁helbide	-14593
▁planaren	-14594
erpo	-14595
▁txapeldunak	-14596
[...]
